#include "model.h"

// Non quantified model

// We need to keep the data array aligned on some architectures.
#ifdef __has_attribute
#define HAVE_ATTRIBUTE(x) __has_attribute(x)
#else
#define HAVE_ATTRIBUTE(x) 0
#endif
#if HAVE_ATTRIBUTE(aligned) || (defined(__GNUC__) && !defined(__clang__))
#define DATA_ALIGN_ATTRIBUTE __attribute__((aligned(4)))
#else
#define DATA_ALIGN_ATTRIBUTE
#endif

const unsigned char converted_model_tflite[] DATA_ALIGN_ATTRIBUTE = {
  0x18, 0x00, 0x00, 0x00, 0x54, 0x46, 0x4c, 0x33, 0x00, 0x00, 0x0e, 0x00,
  0x18, 0x00, 0x04, 0x00, 0x08, 0x00, 0x0c, 0x00, 0x10, 0x00, 0x14, 0x00,
  0x0e, 0x00, 0x00, 0x00, 0x03, 0x00, 0x00, 0x00, 0x3c, 0x18, 0x00, 0x00,
  0x0c, 0x00, 0x00, 0x00, 0x10, 0x00, 0x00, 0x00, 0x20, 0x00, 0x00, 0x00,
  0x01, 0x00, 0x00, 0x00, 0xc4, 0x0f, 0x00, 0x00, 0x0f, 0x00, 0x00, 0x00,
  0x54, 0x4f, 0x43, 0x4f, 0x20, 0x43, 0x6f, 0x6e, 0x76, 0x65, 0x72, 0x74,
  0x65, 0x64, 0x2e, 0x00, 0x14, 0x00, 0x00, 0x00, 0x98, 0x0f, 0x00, 0x00,
  0x90, 0x0f, 0x00, 0x00, 0x88, 0x0f, 0x00, 0x00, 0x80, 0x0f, 0x00, 0x00,
  0x0c, 0x0f, 0x00, 0x00, 0x04, 0x0f, 0x00, 0x00, 0xfc, 0x0e, 0x00, 0x00,
  0xf4, 0x0e, 0x00, 0x00, 0xec, 0x0e, 0x00, 0x00, 0xe4, 0x0e, 0x00, 0x00,
  0xdc, 0x0e, 0x00, 0x00, 0xd4, 0x0e, 0x00, 0x00, 0xcc, 0x0e, 0x00, 0x00,
  0x2c, 0x0e, 0x00, 0x00, 0x0c, 0x0e, 0x00, 0x00, 0xbc, 0x0b, 0x00, 0x00,
  0x9c, 0x0b, 0x00, 0x00, 0x4c, 0x00, 0x00, 0x00, 0x28, 0x00, 0x00, 0x00,
  0x04, 0x00, 0x00, 0x00, 0xbe, 0xe8, 0xff, 0xff, 0x04, 0x00, 0x00, 0x00,
  0x14, 0x00, 0x00, 0x00, 0x41, 0xc2, 0xca, 0xbd, 0x8b, 0xe5, 0x2f, 0x3d,
  0xb7, 0x9d, 0xc0, 0x3d, 0xdc, 0xfd, 0xcc, 0x3a, 0x79, 0x93, 0x2f, 0xbd,
  0xde, 0xe8, 0xff, 0xff, 0x04, 0x00, 0x00, 0x00, 0x14, 0x00, 0x00, 0x00,
  0xc6, 0x36, 0x20, 0x3d, 0xd6, 0xdf, 0x52, 0x3e, 0x26, 0x4e, 0x00, 0xbd,
  0x6b, 0x39, 0x6c, 0x3e, 0xf6, 0x60, 0x1d, 0x36, 0xfe, 0xe8, 0xff, 0xff,
  0x04, 0x00, 0x00, 0x00, 0x40, 0x0b, 0x00, 0x00, 0x39, 0xe2, 0x7b, 0xbd,
  0xa3, 0x86, 0xd7, 0xbc, 0x1f, 0xf0, 0x67, 0x3e, 0x15, 0xa7, 0xef, 0x3d,
  0xea, 0xc5, 0xb2, 0xbd, 0x49, 0xfa, 0xb8, 0xbc, 0x59, 0x2e, 0x9d, 0x3e,
  0xb4, 0xbe, 0x42, 0xbd, 0xe8, 0xe6, 0x39, 0xbd, 0x39, 0x5c, 0x08, 0xbe,
  0xab, 0x2a, 0xdf, 0x3d, 0xbf, 0xbd, 0x1f, 0x3e, 0xaa, 0xdd, 0xf2, 0xbd,
  0x8c, 0xcc, 0x59, 0xbe, 0xf5, 0x46, 0xf5, 0x3d, 0x6e, 0xe7, 0x8f, 0x3d,
  0x1c, 0x2a, 0x0d, 0x3e, 0x1e, 0x20, 0xf1, 0x3d, 0x61, 0x54, 0xf7, 0x3d,
  0x24, 0x5c, 0x14, 0xbd, 0x80, 0x17, 0x61, 0xbe, 0xd7, 0xee, 0x55, 0x39,
  0x0c, 0x2a, 0xfe, 0x3d, 0xfe, 0xa1, 0x49, 0x3e, 0xf7, 0x86, 0x1a, 0xbe,
  0x08, 0x0b, 0x97, 0xbe, 0x59, 0x64, 0xf8, 0x3d, 0x52, 0xb8, 0x2d, 0x3e,
  0xce, 0x87, 0xe7, 0xbd, 0x8f, 0x94, 0x37, 0xbe, 0x93, 0xfe, 0xd0, 0x3d,
  0x10, 0x69, 0x5b, 0x3e, 0x92, 0xd0, 0x1a, 0xbd, 0x96, 0x42, 0x94, 0xbd,
  0x32, 0x36, 0x76, 0xbd, 0x20, 0x91, 0x35, 0xbd, 0xc1, 0xc6, 0x5d, 0xbe,
  0x65, 0x13, 0x96, 0xbd, 0x6d, 0x97, 0xdb, 0x3d, 0x55, 0x21, 0x85, 0x3e,
  0xb5, 0x78, 0x1d, 0x3e, 0x29, 0xf4, 0x07, 0xbe, 0xb7, 0x42, 0x46, 0xbe,
  0x00, 0xef, 0x74, 0xbd, 0xae, 0x4a, 0x72, 0xbd, 0xb3, 0x8b, 0x70, 0xbc,
  0x30, 0x73, 0x9b, 0x3d, 0xd3, 0xa1, 0xd0, 0xbd, 0x52, 0x61, 0xee, 0xbb,
  0xfc, 0x1b, 0x0e, 0x3d, 0xaf, 0xad, 0x64, 0xbd, 0xad, 0xc2, 0xa8, 0xbd,
  0x90, 0x11, 0xed, 0x3d, 0x58, 0x0c, 0xe8, 0x3d, 0x56, 0xd8, 0x26, 0x3d,
  0xa8, 0x12, 0x3d, 0x3e, 0xf2, 0xfc, 0xdd, 0xbc, 0xab, 0xb9, 0x43, 0x3d,
  0xef, 0x9c, 0x75, 0xbe, 0x0c, 0x81, 0x5d, 0x3d, 0x11, 0x35, 0xfa, 0xbd,
  0x77, 0x6b, 0xf1, 0xbb, 0x2b, 0x48, 0x04, 0xbd, 0xc9, 0x66, 0x9a, 0xbd,
  0x6f, 0x4a, 0xd1, 0x3d, 0x48, 0x69, 0xa7, 0xbd, 0xb7, 0xdd, 0x9f, 0xbd,
  0xcf, 0xf0, 0x22, 0xbe, 0x56, 0xcf, 0x80, 0x3c, 0xbe, 0x66, 0xe5, 0xbd,
  0x8b, 0xf6, 0x21, 0xbc, 0xd4, 0x5a, 0x22, 0x3e, 0x21, 0xca, 0xda, 0xbd,
  0x95, 0x45, 0xf9, 0xbd, 0x7d, 0xd7, 0x51, 0x3e, 0xba, 0x43, 0x7b, 0x3e,
  0x79, 0xc9, 0xb5, 0xbc, 0x53, 0xeb, 0xb3, 0x3d, 0xd8, 0xf0, 0xd9, 0xbd,
  0xcd, 0x66, 0x39, 0xbd, 0x3f, 0xa1, 0xb3, 0xbd, 0xf5, 0xe2, 0x90, 0xbc,
  0x47, 0x1a, 0x88, 0xbc, 0x49, 0x24, 0x0d, 0xbd, 0x4f, 0xf4, 0x93, 0x3c,
  0xc7, 0xa1, 0x5b, 0x3d, 0x8c, 0x10, 0xa7, 0x3d, 0x1e, 0x67, 0xfa, 0xbd,
  0x52, 0x97, 0x8c, 0xbd, 0xd4, 0x27, 0x93, 0xbd, 0xbf, 0xd0, 0x08, 0x3e,
  0xd7, 0x1a, 0x7d, 0xbd, 0x3e, 0xec, 0x8f, 0xbc, 0xa9, 0x74, 0xc3, 0x3d,
  0xb7, 0x05, 0x59, 0x3e, 0xd7, 0xa6, 0xa8, 0xbd, 0x1a, 0x67, 0xa8, 0x3c,
  0xf7, 0x25, 0x50, 0xbe, 0x75, 0x00, 0xdd, 0x3e, 0x80, 0xe9, 0xd1, 0x3d,
  0xa4, 0xd6, 0x34, 0x3e, 0xdb, 0xa0, 0x9d, 0x3d, 0x88, 0x4e, 0x3c, 0xbc,
  0xfa, 0x7e, 0xa5, 0x3d, 0x00, 0x7e, 0x3f, 0xbb, 0x38, 0x42, 0x2d, 0x3e,
  0x0c, 0x14, 0x1c, 0x3d, 0x13, 0x0f, 0x1f, 0x3e, 0x8b, 0x21, 0xe3, 0xbd,
  0x36, 0x22, 0xaf, 0xbd, 0x60, 0xfd, 0xa2, 0xbe, 0xf1, 0xa7, 0x8d, 0xbd,
  0x70, 0x7e, 0x23, 0x3e, 0xa7, 0x44, 0x28, 0xbd, 0x72, 0x1c, 0x88, 0xbe,
  0x12, 0x83, 0x5c, 0xbe, 0xcb, 0x1b, 0x63, 0xbd, 0x52, 0x95, 0x2a, 0x3e,
  0x48, 0xe4, 0xcf, 0xbd, 0x63, 0x97, 0x01, 0xbe, 0x76, 0xdc, 0x42, 0x3e,
  0x35, 0x50, 0x40, 0x3e, 0xac, 0xf2, 0x01, 0xbd, 0x93, 0x2b, 0x0f, 0xbe,
  0x43, 0x00, 0xc8, 0xbd, 0x1d, 0x44, 0xf7, 0x3c, 0x57, 0x52, 0x39, 0x3e,
  0x83, 0x2b, 0x54, 0xbd, 0xa6, 0x38, 0x96, 0xbc, 0xe1, 0x42, 0x44, 0xbd,
  0xe7, 0x8e, 0x8e, 0xbe, 0x46, 0xda, 0x06, 0x3c, 0x7c, 0x39, 0x2a, 0xbe,
  0x77, 0xa9, 0x75, 0x3d, 0x80, 0x10, 0x49, 0xbe, 0xa3, 0x21, 0xe1, 0x3d,
  0xe7, 0x56, 0x2a, 0x3e, 0x4b, 0x23, 0x1e, 0x3c, 0x84, 0x56, 0x95, 0xbe,
  0xc6, 0x9a, 0x30, 0x3d, 0x62, 0x60, 0x25, 0x3e, 0x79, 0x2b, 0x8b, 0x3e,
  0xb1, 0x3d, 0xdf, 0xbd, 0x41, 0x7c, 0xb6, 0x3d, 0xbd, 0x43, 0xad, 0xbd,
  0x4c, 0x2e, 0xd5, 0x3d, 0xb5, 0xf8, 0x91, 0x3d, 0x79, 0xab, 0x01, 0x3e,
  0xaf, 0x9b, 0x89, 0xbc, 0x87, 0x71, 0x30, 0xbc, 0xf2, 0x58, 0x78, 0xbe,
  0x39, 0x39, 0x62, 0xbd, 0xd7, 0x54, 0xce, 0xbd, 0x54, 0xeb, 0xd3, 0x3c,
  0x4b, 0xb1, 0xbd, 0xbd, 0x63, 0x61, 0xc8, 0x3d, 0x91, 0xd3, 0x98, 0xbd,
  0x65, 0x16, 0x86, 0xbb, 0xe3, 0xe0, 0xb5, 0x3d, 0x9d, 0x13, 0xbc, 0x3d,
  0x49, 0x22, 0xf5, 0x3d, 0xaf, 0x88, 0xe8, 0x3d, 0xed, 0x55, 0x80, 0x3d,
  0xff, 0x54, 0x85, 0x3d, 0xce, 0x5d, 0xbb, 0x3c, 0xee, 0xda, 0x04, 0x3e,
  0xcc, 0xa9, 0xa0, 0x3d, 0xbf, 0x89, 0x95, 0x3d, 0x5c, 0xb5, 0x00, 0xbe,
  0xfe, 0xbc, 0x81, 0x3d, 0x39, 0x17, 0x05, 0xbc, 0x9b, 0x9f, 0x07, 0xbe,
  0x2e, 0x98, 0xb1, 0xbc, 0x2e, 0xc1, 0x53, 0x3b, 0xee, 0xba, 0x60, 0x3d,
  0x1f, 0xc6, 0xe9, 0xbd, 0xee, 0x1a, 0xa8, 0x3d, 0xfb, 0xfb, 0x41, 0x3d,
  0x6a, 0xad, 0xe1, 0xbd, 0x1d, 0x27, 0x6a, 0xbb, 0x54, 0xc3, 0xc9, 0xbd,
  0xa4, 0xda, 0xf6, 0x3d, 0xc7, 0xcd, 0x90, 0xbd, 0x44, 0x32, 0x86, 0xbd,
  0x34, 0x1f, 0x57, 0xbc, 0x9c, 0x22, 0x95, 0xbc, 0x65, 0x31, 0xb5, 0x3c,
  0x72, 0xe7, 0xda, 0xbd, 0x3a, 0xc5, 0x40, 0x3e, 0xe1, 0xbd, 0x8d, 0x3b,
  0xa0, 0xa2, 0x68, 0xbd, 0x5c, 0x8e, 0x20, 0xbe, 0x71, 0xcf, 0x3b, 0xbd,
  0x9d, 0x36, 0x0b, 0x3e, 0x2e, 0x96, 0x4c, 0xbd, 0x5f, 0xf7, 0x1c, 0x3e,
  0xd9, 0xe6, 0x76, 0x3c, 0x07, 0xf1, 0x8f, 0x3d, 0x99, 0x78, 0x1f, 0x3e,
  0x37, 0x36, 0x2f, 0xbe, 0xed, 0x75, 0x98, 0x3c, 0xff, 0xff, 0x84, 0x3d,
  0xb8, 0xad, 0x3b, 0xbd, 0xd4, 0x43, 0x07, 0x3d, 0x5e, 0xb1, 0xb6, 0xba,
  0xae, 0xb5, 0xa3, 0xbd, 0xa4, 0x00, 0x28, 0xbd, 0xa3, 0x39, 0x9b, 0x3d,
  0x4b, 0x70, 0xeb, 0xbb, 0x03, 0xae, 0xe0, 0x3d, 0x47, 0x3a, 0x9e, 0xbd,
  0xcb, 0xcd, 0x3c, 0xbd, 0x91, 0x3d, 0x01, 0x3e, 0x5a, 0x97, 0xd3, 0x3c,
  0x17, 0x1b, 0x53, 0xbd, 0xe7, 0xc5, 0xf4, 0x3d, 0x2f, 0xc2, 0x07, 0x3c,
  0xa1, 0xb0, 0xb5, 0xbd, 0x4f, 0x89, 0xc0, 0xbd, 0x74, 0xe9, 0x40, 0x3e,
  0x97, 0xac, 0x84, 0xbd, 0xc6, 0xa9, 0x17, 0xbe, 0xbe, 0x07, 0xe2, 0xbd,
  0xc5, 0x62, 0xb4, 0xbc, 0x18, 0x0b, 0x30, 0xbb, 0xae, 0xa3, 0xc3, 0xbd,
  0xa8, 0x36, 0x03, 0x3d, 0x54, 0xf7, 0x61, 0xbd, 0xc0, 0xaf, 0x01, 0xbc,
  0x83, 0xa9, 0x00, 0xbe, 0xad, 0x27, 0x7d, 0x3d, 0xe1, 0x02, 0x8d, 0x3d,
  0x45, 0x94, 0x1f, 0x3d, 0x72, 0x03, 0x68, 0x3d, 0x56, 0x64, 0x4c, 0x3c,
  0x2e, 0xe1, 0xfc, 0xbd, 0x17, 0x5b, 0xd4, 0x3d, 0x40, 0x90, 0x88, 0x3d,
  0xab, 0xa6, 0x65, 0x3b, 0xc2, 0x47, 0x05, 0x3d, 0xf2, 0xe2, 0x4e, 0x3a,
  0xa9, 0xc5, 0x99, 0x3c, 0xde, 0xff, 0x5e, 0xbe, 0x1e, 0xb3, 0xc3, 0xbb,
  0x44, 0x25, 0x02, 0xbe, 0x8c, 0x34, 0x96, 0x3d, 0x03, 0x1d, 0xd4, 0xbb,
  0x0e, 0xf5, 0x66, 0x3b, 0xf5, 0xc9, 0xb7, 0x3d, 0x02, 0xa5, 0x96, 0xbc,
  0x7f, 0x17, 0x55, 0x3d, 0xd4, 0xa7, 0x31, 0xbe, 0x76, 0x83, 0x0e, 0x3d,
  0x1c, 0xb6, 0x2b, 0xbe, 0xb6, 0xb0, 0x5a, 0xbe, 0x28, 0x83, 0x2a, 0xbe,
  0xcd, 0xda, 0x16, 0x3e, 0x17, 0x21, 0x13, 0xbe, 0x3d, 0xb1, 0xaf, 0xbd,
  0xb2, 0xd2, 0xe5, 0x3d, 0xeb, 0xb0, 0x5f, 0x3d, 0xf5, 0xa7, 0xd9, 0xbc,
  0x1e, 0xe3, 0xaa, 0xbd, 0x10, 0xcc, 0xa6, 0x3d, 0xd6, 0x38, 0x01, 0xbe,
  0x07, 0x2b, 0xd9, 0xbd, 0x73, 0xbf, 0xed, 0x3d, 0x0d, 0x01, 0xc2, 0xbd,
  0x9c, 0xe2, 0xcf, 0xbd, 0x7c, 0xaa, 0x41, 0xbe, 0xc1, 0xd2, 0xdc, 0x3d,
  0x2f, 0x87, 0x11, 0x3e, 0x73, 0x66, 0x78, 0x3d, 0x85, 0xdf, 0x8b, 0x3c,
  0xaa, 0x15, 0x8c, 0x3d, 0x5d, 0xf5, 0xf5, 0xbc, 0x86, 0x06, 0x88, 0x3d,
  0x9e, 0x99, 0xc8, 0x3c, 0xb6, 0x34, 0x73, 0x3d, 0xdb, 0xd5, 0xd5, 0xbd,
  0x85, 0x4c, 0xd0, 0x3d, 0x10, 0xb7, 0x6c, 0x3d, 0x9d, 0xdc, 0x05, 0x3b,
  0xaf, 0x02, 0xb5, 0xbd, 0x0d, 0x61, 0x4a, 0x3c, 0x05, 0xa5, 0xad, 0xbd,
  0xce, 0xc5, 0x8d, 0x3c, 0xcc, 0x8c, 0x2d, 0xbe, 0x10, 0xe7, 0xcb, 0x3d,
  0xd8, 0x15, 0x8d, 0x3e, 0xa1, 0x2a, 0xf5, 0x3d, 0x25, 0x03, 0x13, 0xbe,
  0x43, 0x87, 0xd4, 0xbd, 0x85, 0xe8, 0x54, 0x3e, 0x35, 0x15, 0x3a, 0xbe,
  0x94, 0x46, 0x14, 0x3d, 0x28, 0xc8, 0x88, 0xbe, 0x25, 0x01, 0x3b, 0x3e,
  0xa4, 0x1b, 0x60, 0xbe, 0x45, 0xb2, 0xdd, 0xbd, 0x13, 0x30, 0xf9, 0x3d,
  0x88, 0xc2, 0x4b, 0x3d, 0x7a, 0x4d, 0xdc, 0xbe, 0xfb, 0xac, 0xad, 0x3c,
  0xe6, 0x50, 0x3b, 0x3d, 0xc5, 0x64, 0x12, 0xbe, 0xb1, 0x02, 0x10, 0xbe,
  0x5a, 0x1d, 0x57, 0x3b, 0xe6, 0x92, 0x79, 0xbd, 0x6e, 0x22, 0xe5, 0x3c,
  0x0f, 0xc3, 0x4c, 0xbe, 0x8a, 0x2d, 0xbf, 0x3d, 0xf4, 0x1f, 0x77, 0xbe,
  0x78, 0x8d, 0x87, 0x3e, 0x48, 0xcb, 0x6a, 0xbd, 0x96, 0xf2, 0x6b, 0x3d,
  0xdc, 0xf8, 0x38, 0xbd, 0xfd, 0x2c, 0x0b, 0xbe, 0xd8, 0x9d, 0xe9, 0xbd,
  0x39, 0xc6, 0x1c, 0xbe, 0xfe, 0x22, 0x3f, 0x3e, 0x18, 0xf7, 0xf6, 0xbc,
  0x95, 0x7d, 0x24, 0x3e, 0x33, 0x36, 0x41, 0xbe, 0x4a, 0x9b, 0xa4, 0xbd,
  0x74, 0x19, 0x21, 0x3d, 0x38, 0x70, 0x79, 0x3e, 0xc0, 0x11, 0xfe, 0x3d,
  0xae, 0x47, 0x1c, 0xbc, 0x3c, 0x9e, 0x16, 0xbd, 0xf3, 0xdd, 0x50, 0x3e,
  0xa3, 0xad, 0x19, 0xbe, 0x40, 0xb6, 0xea, 0xbd, 0x26, 0x41, 0x9b, 0xbd,
  0x20, 0x6e, 0x96, 0xbe, 0xef, 0x46, 0x01, 0xbe, 0xb3, 0xf3, 0x40, 0xbc,
  0x0c, 0x20, 0x71, 0x3e, 0xc4, 0x6f, 0xf3, 0xbd, 0xa2, 0xb4, 0x1c, 0x3d,
  0x38, 0x06, 0x2b, 0x3d, 0x7a, 0xd3, 0xcf, 0xbc, 0x1c, 0xaf, 0xbf, 0x3d,
  0xa6, 0xd9, 0xb4, 0x3d, 0x91, 0x74, 0xd3, 0xbd, 0xa3, 0x24, 0xea, 0xbd,
  0xc1, 0xc7, 0x0c, 0xbd, 0x58, 0x52, 0xe4, 0x3c, 0xb8, 0x4f, 0x03, 0xbe,
  0x45, 0xc5, 0xc8, 0xbd, 0x1c, 0x00, 0x17, 0xbe, 0xf4, 0x5d, 0x05, 0x3d,
  0x0b, 0x1b, 0xc9, 0x3d, 0xe4, 0x98, 0xc2, 0xbd, 0x66, 0xb2, 0x2e, 0x3e,
  0x17, 0x43, 0xc5, 0x3d, 0xca, 0x12, 0xad, 0x3d, 0x7b, 0x99, 0x4c, 0xbb,
  0xc2, 0x2f, 0xa2, 0x3d, 0x3e, 0x94, 0x40, 0x3e, 0x81, 0x7b, 0x4a, 0xbe,
  0x68, 0xba, 0x17, 0x3e, 0x6c, 0x6d, 0x31, 0xbe, 0x5d, 0xe0, 0x05, 0xbe,
  0x0a, 0x04, 0x0f, 0x3e, 0x2d, 0x91, 0xac, 0x3d, 0xe0, 0x42, 0x1a, 0xbe,
  0x9d, 0x11, 0x4a, 0x3e, 0x5d, 0xe0, 0x52, 0x3e, 0xdf, 0x45, 0xd7, 0xbc,
  0x46, 0xbb, 0xe1, 0x3c, 0xf7, 0x31, 0x39, 0xbd, 0xcb, 0xcf, 0x7a, 0x3a,
  0xb9, 0xa5, 0x0d, 0xbc, 0xca, 0xf4, 0x18, 0x3e, 0xe7, 0x7a, 0x58, 0xbd,
  0x18, 0xb4, 0x08, 0x3d, 0x9f, 0xc2, 0x8c, 0x3d, 0xa7, 0xde, 0x88, 0x3e,
  0xf4, 0x6d, 0x55, 0x3e, 0xa3, 0xe5, 0xb5, 0xbd, 0x8c, 0x6d, 0x3f, 0xbe,
  0x4e, 0x9d, 0xa8, 0x3d, 0xc6, 0x69, 0x5a, 0x3d, 0x6c, 0xcf, 0xd9, 0xbc,
  0xe9, 0xbb, 0xa7, 0xbd, 0x55, 0xe8, 0x20, 0xbf, 0xe6, 0x4e, 0x23, 0x3e,
  0xd5, 0xf3, 0x86, 0x3d, 0x8a, 0xcb, 0xea, 0xbd, 0x8d, 0x28, 0xef, 0xbc,
  0xb9, 0xda, 0xf6, 0xbd, 0x64, 0xf1, 0x1e, 0xbd, 0x5e, 0x54, 0x30, 0xbe,
  0x30, 0x34, 0x3a, 0xbe, 0x0e, 0xd3, 0x05, 0xbe, 0x4e, 0x76, 0xfa, 0x3d,
  0xb7, 0x8d, 0x2e, 0xbe, 0x73, 0xd2, 0x10, 0x3e, 0xd4, 0x43, 0x87, 0xbd,
  0x66, 0x5b, 0x2e, 0xbd, 0x7d, 0x32, 0xed, 0xbd, 0x38, 0xac, 0x2d, 0x3e,
  0x41, 0xe4, 0xf7, 0x3b, 0xd5, 0xa9, 0x8b, 0xbe, 0xd6, 0x1e, 0x8e, 0xbd,
  0xdd, 0x7c, 0x1c, 0xbe, 0xb6, 0x04, 0x9c, 0x3d, 0x60, 0xd7, 0x25, 0x3d,
  0x0e, 0x05, 0x9c, 0xbd, 0xa8, 0x4f, 0x02, 0xbe, 0xf9, 0x06, 0xa5, 0x3e,
  0x8c, 0xc9, 0x0f, 0xbe, 0x52, 0x65, 0x8c, 0xbe, 0xed, 0x16, 0x39, 0x3e,
  0x11, 0xd1, 0xc1, 0x3c, 0x54, 0x1a, 0x14, 0xbd, 0xd5, 0x4c, 0x50, 0xbe,
  0x04, 0x6c, 0x64, 0x3e, 0x05, 0x41, 0xc6, 0xbd, 0x99, 0x25, 0x0d, 0xbe,
  0xd9, 0x0e, 0x42, 0x3e, 0xca, 0x4b, 0xe0, 0x3d, 0xcb, 0xd6, 0x9b, 0x3d,
  0x93, 0x90, 0xc9, 0xbd, 0xb6, 0x22, 0xe0, 0xbd, 0x8c, 0x3e, 0x56, 0x3d,
  0x58, 0x61, 0x05, 0x3e, 0x5a, 0xe7, 0x03, 0xbe, 0x2c, 0x5f, 0xda, 0xbc,
  0x4b, 0x6a, 0xef, 0xbd, 0x0d, 0xb1, 0x56, 0x3d, 0xab, 0xb3, 0x28, 0x3c,
  0xb8, 0x9f, 0x26, 0xbd, 0x07, 0xac, 0x5d, 0xbe, 0x40, 0x2a, 0x5d, 0xbe,
  0x5f, 0x4c, 0x0d, 0x3e, 0x6a, 0x2f, 0xf1, 0xbd, 0x6b, 0x67, 0xb4, 0x3d,
  0x22, 0x39, 0x6e, 0xbe, 0x45, 0x75, 0x6a, 0x3e, 0x9e, 0x3d, 0x09, 0xbd,
  0x88, 0x49, 0x9f, 0x3d, 0x5c, 0xe0, 0x98, 0x3b, 0x56, 0x71, 0x67, 0x3e,
  0x5d, 0xf6, 0x1d, 0xbd, 0x77, 0xc9, 0xe4, 0x3c, 0x6a, 0x8e, 0x9a, 0xbc,
  0x7d, 0x51, 0xb6, 0x3d, 0x0e, 0x5f, 0x8d, 0x3e, 0x36, 0x7e, 0x84, 0x3e,
  0x29, 0x35, 0x61, 0xbe, 0xc6, 0xfe, 0x02, 0xbe, 0x03, 0xc9, 0x27, 0x3d,
  0x45, 0x72, 0x11, 0xbd, 0xce, 0xe4, 0x5d, 0xbe, 0xa1, 0xbe, 0xc5, 0xbb,
  0x1c, 0xd5, 0x1d, 0x3e, 0x02, 0x5f, 0x39, 0xbe, 0x92, 0x57, 0xae, 0xbd,
  0xb5, 0x5b, 0x1b, 0x3d, 0xde, 0xa3, 0x50, 0x3e, 0xb8, 0xd0, 0x90, 0xbd,
  0xd9, 0x04, 0x93, 0x3d, 0x40, 0x62, 0xc9, 0xbd, 0x3a, 0x4a, 0x8b, 0x3d,
  0x11, 0x7e, 0x83, 0xbd, 0xc4, 0x8e, 0x7b, 0xbd, 0xce, 0x7c, 0x14, 0xbd,
  0x99, 0xf0, 0x8c, 0x3d, 0x73, 0xda, 0x95, 0xbd, 0xd6, 0xbf, 0xef, 0xbd,
  0x2e, 0xb2, 0xa3, 0x3d, 0x08, 0x24, 0xdc, 0x3c, 0x3e, 0x9b, 0x71, 0xbe,
  0x07, 0x6e, 0x01, 0x3e, 0xdc, 0xd5, 0x74, 0xbe, 0xb4, 0x99, 0xf6, 0x3d,
  0x22, 0xf0, 0x78, 0x3e, 0x1d, 0x24, 0x26, 0xbe, 0x51, 0x61, 0x7b, 0x3d,
  0x16, 0x58, 0xcd, 0xbd, 0xda, 0x5d, 0x50, 0xbd, 0x01, 0xcc, 0x05, 0xbe,
  0x25, 0xa0, 0xec, 0xbd, 0xde, 0xc9, 0xf5, 0xbd, 0xf2, 0x01, 0x6b, 0xbe,
  0xda, 0xc0, 0x42, 0xbe, 0x74, 0x55, 0xd7, 0x3c, 0xb5, 0x99, 0x11, 0xbe,
  0x5d, 0x5c, 0xd5, 0x3d, 0x9e, 0x70, 0x12, 0xbe, 0xe8, 0x92, 0xc1, 0x3d,
  0x9a, 0xef, 0x1c, 0x3d, 0x02, 0x90, 0x84, 0x3d, 0x86, 0x09, 0x3f, 0x3d,
  0x8a, 0xc8, 0xa9, 0x3d, 0xb3, 0xe2, 0x05, 0xbe, 0x29, 0xb1, 0x73, 0xbc,
  0x61, 0xe6, 0xff, 0xbc, 0xb4, 0x44, 0xe2, 0x3c, 0xae, 0x5e, 0xbf, 0xbd,
  0x52, 0x60, 0xd9, 0x3c, 0xcb, 0x67, 0x1c, 0x3d, 0x24, 0x3e, 0x35, 0xbe,
  0x99, 0xd7, 0xac, 0x3d, 0xdf, 0x8f, 0x33, 0xbe, 0xad, 0x37, 0x31, 0x3e,
  0x90, 0x4f, 0xf7, 0xbc, 0xa1, 0x5a, 0x69, 0x3e, 0x4c, 0xd7, 0xac, 0xbc,
  0x59, 0x6b, 0x53, 0x3e, 0xef, 0xca, 0x01, 0x3c, 0x7f, 0x7b, 0x2c, 0x3d,
  0x86, 0x9f, 0x39, 0x3d, 0x3f, 0xb0, 0x67, 0x3d, 0x2b, 0x71, 0x2e, 0xbe,
  0x4c, 0x81, 0xf6, 0xbd, 0xce, 0xa5, 0xba, 0xbe, 0xd1, 0x75, 0x96, 0xbd,
  0x01, 0x7d, 0xf6, 0xbd, 0x45, 0x6b, 0x7c, 0xbd, 0x29, 0xed, 0xe7, 0xbd,
  0xbf, 0x78, 0x18, 0x3e, 0xb3, 0x6b, 0x07, 0xbe, 0x6d, 0xba, 0x29, 0xbe,
  0x4c, 0x0b, 0x9a, 0x3e, 0xe8, 0x5c, 0x11, 0x3e, 0x6f, 0x6b, 0x8b, 0xbd,
  0xb9, 0xdf, 0x47, 0x3e, 0x22, 0xe3, 0x40, 0x3e, 0x83, 0x9c, 0xd4, 0x3d,
  0x8d, 0x05, 0x7f, 0xbd, 0x18, 0xbd, 0xae, 0xbd, 0x67, 0xd4, 0x52, 0xbd,
  0x1d, 0x56, 0xaa, 0x3d, 0xad, 0x02, 0x89, 0xbe, 0x73, 0xe4, 0x94, 0x3c,
  0xf3, 0x05, 0x2f, 0xbd, 0x25, 0x1f, 0x3a, 0x3e, 0x60, 0x58, 0x28, 0xbd,
  0x20, 0x57, 0xc4, 0x3d, 0x19, 0xfc, 0xd2, 0xbc, 0x17, 0x96, 0x34, 0x3e,
  0x7c, 0x80, 0xc8, 0xbd, 0x0f, 0x7b, 0x80, 0xbd, 0x63, 0xde, 0xb7, 0x3d,
  0x11, 0xa7, 0xd6, 0x3d, 0x3d, 0xee, 0x38, 0xbe, 0x30, 0x34, 0x0a, 0xbe,
  0xf3, 0xdd, 0xb6, 0xba, 0xcb, 0xc6, 0x99, 0x3d, 0x30, 0x37, 0x5b, 0x3d,
  0x76, 0xe6, 0x75, 0xbc, 0xbb, 0x9c, 0x04, 0x3e, 0x63, 0xde, 0xca, 0x3d,
  0x38, 0x4f, 0x6e, 0xbd, 0x56, 0x06, 0x4c, 0x3e, 0x1b, 0xe1, 0x44, 0xbe,
  0xb4, 0x08, 0x2b, 0x3e, 0x26, 0xc2, 0x33, 0xbd, 0xa9, 0x7b, 0x6d, 0x3d,
  0x7e, 0xe5, 0x88, 0x3d, 0x58, 0x9a, 0x63, 0x3e, 0x69, 0xfd, 0x22, 0xbe,
  0x07, 0x32, 0xb8, 0xba, 0x24, 0xd1, 0xc7, 0xbd, 0xd9, 0x54, 0xce, 0x3d,
  0xc1, 0xc5, 0x8e, 0xbc, 0x01, 0x2d, 0x86, 0xbe, 0x51, 0x5d, 0xc8, 0xbd,
  0xaa, 0x2c, 0x94, 0xbd, 0x8b, 0x4e, 0x0b, 0xbe, 0x60, 0x50, 0x90, 0xbe,
  0xbe, 0x02, 0x93, 0xbd, 0xa8, 0x03, 0x52, 0x3e, 0x40, 0xcf, 0x87, 0x3a,
  0x51, 0xab, 0x17, 0x3e, 0x75, 0x4c, 0x02, 0x3e, 0x7f, 0xba, 0x33, 0x3e,
  0x1e, 0x53, 0xa3, 0xbd, 0xe1, 0xe5, 0xea, 0x3d, 0xd5, 0xfb, 0x13, 0x3d,
  0x21, 0x15, 0xd3, 0xbb, 0x3e, 0xa0, 0x62, 0x3d, 0x81, 0x4a, 0x73, 0xbd,
  0x5c, 0x00, 0x0a, 0x3e, 0xe7, 0xf5, 0xa7, 0x3d, 0xc3, 0x30, 0xff, 0xbd,
  0xc0, 0x42, 0x0b, 0xbe, 0x29, 0x00, 0xa4, 0xbd, 0x99, 0x9d, 0x5d, 0xbc,
  0x09, 0x41, 0xff, 0x3d, 0x67, 0x5c, 0x75, 0x3e, 0x05, 0x26, 0xb0, 0x3c,
  0xdb, 0x4c, 0xd0, 0xbd, 0xf0, 0x1f, 0x81, 0xbd, 0x74, 0x87, 0x0f, 0xbd,
  0x3f, 0xc2, 0x99, 0xbd, 0xa4, 0xd4, 0xe2, 0xbd, 0xcc, 0x87, 0x97, 0xbd,
  0xc6, 0x5a, 0xf2, 0xbd, 0x5d, 0xf0, 0xab, 0xbd, 0x06, 0xff, 0x31, 0x3e,
  0xfa, 0x7e, 0xf1, 0x3d, 0xbf, 0x87, 0xa6, 0xbc, 0xe1, 0x5e, 0xaf, 0xbd,
  0xa5, 0x52, 0x2c, 0xbc, 0xdb, 0xd1, 0x1e, 0x3e, 0x1e, 0x58, 0x2b, 0x3e,
  0x93, 0x8f, 0xb8, 0xbd, 0x8c, 0x4d, 0xf8, 0xbd, 0x4f, 0xe0, 0x53, 0xbb,
  0xf8, 0xa2, 0x55, 0x3e, 0x28, 0xe1, 0xe1, 0xbe, 0xe4, 0x36, 0x7b, 0x3d,
  0x17, 0x2f, 0xdd, 0x3c, 0xb9, 0x5d, 0xa2, 0xbd, 0xa2, 0xcc, 0x40, 0xbe,
  0xf8, 0x65, 0x43, 0xbe, 0xb8, 0x99, 0x1a, 0x3e, 0xa0, 0x0f, 0x92, 0xbd,
  0x6b, 0x49, 0x3b, 0x3e, 0x13, 0xf2, 0xf5, 0xbc, 0xce, 0x77, 0x51, 0xbe,
  0x20, 0xe6, 0x9a, 0xbd, 0xc9, 0x9d, 0xf6, 0x3d, 0xf2, 0xa5, 0x1a, 0xbd,
  0x17, 0x39, 0x1b, 0x3e, 0xaf, 0x41, 0x02, 0x3d, 0x97, 0x89, 0x2f, 0xbe,
  0xa3, 0x55, 0x03, 0xbe, 0x1b, 0xd2, 0x2e, 0x3d, 0x61, 0x46, 0x2a, 0xbc,
  0x1e, 0x63, 0x50, 0xbd, 0x34, 0x00, 0xdf, 0x3d, 0x2c, 0x46, 0xd2, 0xbd,
  0x77, 0xbc, 0xb3, 0xbc, 0xba, 0xc4, 0x83, 0xbe, 0x4f, 0xbc, 0xe1, 0xbd,
  0x2c, 0x66, 0x9a, 0x3d, 0x09, 0x88, 0xd3, 0x3d, 0xbc, 0x4d, 0xee, 0x3d,
  0xb4, 0x57, 0xcb, 0xbc, 0x32, 0xd1, 0x8e, 0xbb, 0xf3, 0x0f, 0xa6, 0x3c,
  0xed, 0x3c, 0x48, 0x3e, 0xb2, 0x2f, 0x14, 0xbe, 0xdb, 0x92, 0xc5, 0x3d,
  0x3f, 0x71, 0x30, 0x3d, 0x5d, 0xa3, 0x9f, 0x3d, 0x56, 0xa3, 0x37, 0x3e,
  0xfe, 0xc8, 0x00, 0xbb, 0x0f, 0x41, 0xf3, 0x3d, 0xb3, 0xa6, 0x5d, 0xbe,
  0x1e, 0xab, 0x10, 0x3e, 0x20, 0x32, 0xd7, 0x3c, 0x71, 0xf8, 0xaf, 0xbd,
  0x4b, 0x34, 0x05, 0xbe, 0xf5, 0x34, 0x19, 0x3d, 0xca, 0xb5, 0x47, 0xbd,
  0xaa, 0x6f, 0xe5, 0xbd, 0xd3, 0xbd, 0x95, 0x3b, 0x02, 0x81, 0xdd, 0xbd,
  0x5b, 0xa5, 0x0c, 0x3c, 0x7b, 0x98, 0xa5, 0xbc, 0xa7, 0xba, 0xc8, 0xbe,
  0xf8, 0x8f, 0x92, 0x3d, 0x27, 0xcb, 0xcf, 0xbd, 0xb4, 0xe6, 0xb9, 0x3d,
  0xc7, 0x4c, 0x04, 0x3e, 0xe4, 0x0b, 0x61, 0x3e, 0xa5, 0xf6, 0xde, 0xbc,
  0x9e, 0xee, 0xd2, 0xbd, 0x76, 0x50, 0x0e, 0x3e, 0xd6, 0x99, 0xf8, 0xba,
  0xa8, 0x1a, 0x6c, 0xbd, 0x13, 0xd0, 0x96, 0x3d, 0x86, 0xd8, 0x81, 0x3e,
  0xca, 0xb0, 0x80, 0x3d, 0xe4, 0x1a, 0x82, 0x3d, 0x2b, 0xd8, 0x7c, 0xbe,
  0xb9, 0xe9, 0xcd, 0x3d, 0x4a, 0x07, 0x12, 0x3e, 0x27, 0x3d, 0xdc, 0xbd,
  0x9d, 0xf3, 0x4c, 0xbe, 0x16, 0xea, 0xba, 0x3d, 0xd0, 0x8e, 0x46, 0xbd,
  0xc9, 0xf3, 0x2c, 0xbe, 0xfa, 0x18, 0x7b, 0xbe, 0xe8, 0x30, 0x7d, 0x3c,
  0xf5, 0x13, 0x1d, 0x3e, 0x02, 0xb8, 0x48, 0x3c, 0x78, 0x9b, 0x3c, 0x3d,
  0x95, 0x59, 0xd8, 0xbd, 0x88, 0xc9, 0x1f, 0x3e, 0xbd, 0x60, 0x32, 0xbe,
  0xd5, 0x12, 0x37, 0x3e, 0x14, 0x26, 0x21, 0x3e, 0xd7, 0xd1, 0xf4, 0xbb,
  0xa7, 0xfc, 0x19, 0xbe, 0x69, 0x17, 0x02, 0x3e, 0x81, 0x09, 0xa4, 0x3e,
  0xa3, 0xd7, 0x2c, 0x3e, 0xd1, 0x76, 0xd5, 0xbd, 0x66, 0xf6, 0x48, 0x3d,
  0x86, 0xe2, 0x37, 0x3e, 0x87, 0x4f, 0x23, 0x3e, 0x1e, 0xca, 0x40, 0x3e,
  0x6f, 0xe7, 0xb7, 0xbb, 0x73, 0x1c, 0xbd, 0x3d, 0xb4, 0x4d, 0x9f, 0xbd,
  0x5f, 0x08, 0x34, 0xbe, 0x71, 0x69, 0xe1, 0xbd, 0x97, 0x79, 0x01, 0xbe,
  0xd4, 0x1e, 0x91, 0x3e, 0xca, 0xbe, 0x6e, 0xbd, 0x2b, 0xe3, 0x89, 0xbe,
  0xaf, 0x01, 0x83, 0x3d, 0x6f, 0xd0, 0x87, 0x3e, 0x4a, 0xf4, 0xff, 0xff,
  0x04, 0x00, 0x00, 0x00, 0x10, 0x00, 0x00, 0x00, 0x40, 0xa2, 0xb8, 0xbd,
  0xf6, 0x17, 0x45, 0xbe, 0x81, 0xb3, 0x99, 0xbd, 0xa1, 0x58, 0x37, 0x3d,
  0x66, 0xf4, 0xff, 0xff, 0x04, 0x00, 0x00, 0x00, 0x40, 0x02, 0x00, 0x00,
  0x89, 0x14, 0x82, 0x3d, 0xe7, 0xbd, 0x18, 0xbe, 0x9b, 0xc5, 0xb5, 0xbd,
  0x48, 0xe0, 0x03, 0xbe, 0x2d, 0xba, 0x5d, 0xbe, 0x4e, 0x3c, 0x1f, 0x3e,
  0x64, 0x47, 0x8c, 0x3d, 0x01, 0x4a, 0x2b, 0x3e, 0x10, 0xdd, 0x7e, 0x3e,
  0x38, 0x52, 0xce, 0x3d, 0x0f, 0x2c, 0x54, 0x3e, 0x7c, 0x9e, 0x15, 0xbd,
  0xa8, 0xdd, 0x11, 0x3e, 0x41, 0xc1, 0x52, 0xbe, 0xa3, 0xab, 0x66, 0x3c,
  0xde, 0x0b, 0x9a, 0xbd, 0xb9, 0x60, 0xde, 0xbd, 0x25, 0x6c, 0x88, 0x3d,
  0x3f, 0xf0, 0xd7, 0x3c, 0x26, 0x9d, 0xf1, 0x3d, 0x71, 0xb3, 0x03, 0xbd,
  0xf9, 0xcb, 0x8b, 0xbe, 0x24, 0x9c, 0xf7, 0x3d, 0x39, 0xd5, 0x0b, 0x3e,
  0x2b, 0xe4, 0x33, 0xbe, 0xc8, 0x6f, 0x87, 0x3e, 0x45, 0xc0, 0x0b, 0x3e,
  0x35, 0xac, 0x3a, 0x3e, 0xbf, 0xc9, 0x12, 0x3d, 0x8e, 0x96, 0x8a, 0xbe,
  0x0a, 0xb5, 0x08, 0x3e, 0x89, 0xa3, 0x9f, 0xbd, 0x77, 0xd7, 0x45, 0x3d,
  0x1c, 0x02, 0xfa, 0xbd, 0x98, 0xd2, 0xc5, 0xbd, 0xb4, 0xdb, 0xc5, 0x3d,
  0x78, 0x44, 0x91, 0x3d, 0x5e, 0x9e, 0xd7, 0xbd, 0x53, 0x6a, 0xa9, 0xbe,
  0xb6, 0x36, 0x2e, 0x3d, 0x4b, 0x5b, 0x98, 0x3e, 0xaa, 0xab, 0x92, 0x3c,
  0xa5, 0x87, 0x03, 0xbe, 0x4f, 0x52, 0xb8, 0x3d, 0x79, 0x0b, 0x10, 0xbe,
  0xbc, 0xac, 0x6f, 0x3e, 0x2e, 0xaa, 0x00, 0xbe, 0x05, 0x04, 0xa0, 0xbd,
  0x64, 0xc5, 0x23, 0x3e, 0x44, 0xcf, 0xe1, 0x3b, 0x16, 0xaa, 0x61, 0xbd,
  0x27, 0x0f, 0x7b, 0x3c, 0x4d, 0x62, 0x0c, 0xbd, 0x05, 0xf0, 0x63, 0xbd,
  0xbd, 0x89, 0x7b, 0xbe, 0x34, 0x7c, 0xea, 0xbd, 0x90, 0x87, 0xa9, 0xbc,
  0x52, 0xff, 0x26, 0xbd, 0x23, 0x2f, 0x8f, 0xbd, 0x52, 0x6d, 0x40, 0x3d,
  0x19, 0xf9, 0xc8, 0xbd, 0xdf, 0x73, 0x8a, 0xbe, 0x8f, 0x5e, 0xcc, 0xbd,
  0xc5, 0xbe, 0x6a, 0xbd, 0xd2, 0x9c, 0xf6, 0xbd, 0xe9, 0xd2, 0x1d, 0x3e,
  0x00, 0xbf, 0x7b, 0x3e, 0x73, 0x28, 0xe1, 0xbc, 0xf2, 0xe7, 0x66, 0x3e,
  0xef, 0x84, 0x2f, 0x3e, 0x9f, 0x40, 0x58, 0xbe, 0x74, 0xc8, 0x26, 0x3c,
  0x2c, 0x87, 0x40, 0x3d, 0xe1, 0x97, 0x31, 0x3e, 0x4e, 0xcd, 0xc9, 0x3d,
  0x52, 0x99, 0x8c, 0x3d, 0xc6, 0x01, 0x8a, 0x3e, 0x39, 0xb9, 0xcc, 0xbd,
  0x89, 0x9a, 0xc7, 0xbd, 0x13, 0xeb, 0xd9, 0xbc, 0x23, 0x36, 0x0e, 0x3e,
  0xf1, 0xad, 0x47, 0x3e, 0x04, 0x39, 0x60, 0x3e, 0x1e, 0x80, 0xa4, 0xbe,
  0xd1, 0xc2, 0x7a, 0x3d, 0x62, 0xea, 0x65, 0x3d, 0x48, 0xfb, 0xb3, 0x3e,
  0x93, 0xc7, 0xb5, 0x3c, 0xc7, 0x8f, 0x34, 0x3e, 0x57, 0xf9, 0x45, 0x3e,
  0x7f, 0x9c, 0x70, 0xbe, 0x4d, 0xc3, 0x4d, 0x3e, 0x60, 0x21, 0x97, 0xbd,
  0xbd, 0x09, 0x30, 0xbe, 0xe6, 0x22, 0xda, 0x3d, 0xa2, 0xb3, 0xd9, 0x3d,
  0xbd, 0xb6, 0x71, 0x3c, 0x92, 0xe3, 0x8a, 0xbe, 0x17, 0xd9, 0x5d, 0x3e,
  0x9e, 0x10, 0x96, 0x3e, 0xe7, 0x9d, 0x46, 0xbe, 0xc8, 0xc7, 0x3b, 0xbe,
  0x70, 0x29, 0x1c, 0xbe, 0x5a, 0x4d, 0xa7, 0x3d, 0xdd, 0xa5, 0xfe, 0x3d,
  0xf4, 0x35, 0x46, 0x3e, 0x8b, 0x03, 0x41, 0xbb, 0x8d, 0x46, 0x5b, 0xbe,
  0x84, 0x4d, 0x6b, 0xbe, 0x6c, 0xdf, 0x14, 0x3d, 0xe5, 0x9f, 0x66, 0xbb,
  0x10, 0x61, 0x76, 0xbd, 0xc3, 0x99, 0xa4, 0xbd, 0x35, 0x65, 0x47, 0xbe,
  0x34, 0xb1, 0xad, 0x3d, 0x6c, 0xde, 0x5a, 0x3e, 0xf8, 0x3e, 0xd7, 0xbd,
  0x9e, 0x23, 0x06, 0x3e, 0xb1, 0x71, 0x99, 0x3e, 0xd1, 0x42, 0x66, 0xbe,
  0xa7, 0xd2, 0x12, 0x3c, 0x35, 0xc5, 0xde, 0x3d, 0x8d, 0x66, 0x87, 0xbe,
  0x28, 0x30, 0xbd, 0xbc, 0x38, 0xeb, 0x8d, 0x3e, 0xe4, 0x6e, 0x5c, 0x3d,
  0x1a, 0xe5, 0x19, 0xbd, 0x24, 0x0f, 0xfe, 0xbd, 0x85, 0x7f, 0x4b, 0xbc,
  0xe4, 0x69, 0xbf, 0xb9, 0x7e, 0x43, 0x32, 0x3e, 0x4c, 0xa5, 0xcb, 0x3d,
  0x39, 0x6f, 0x1e, 0xbe, 0x54, 0xac, 0x92, 0x3e, 0xa3, 0x80, 0xfe, 0xbd,
  0x62, 0xfd, 0x58, 0xbe, 0x61, 0x29, 0xe7, 0xbc, 0x85, 0x02, 0x33, 0xbd,
  0x06, 0xec, 0xaf, 0x3d, 0x8f, 0x67, 0x1e, 0x3e, 0x15, 0x12, 0x92, 0xbd,
  0x3b, 0x1c, 0x9a, 0x3e, 0xa0, 0xeb, 0x0a, 0xbe, 0xfb, 0x4b, 0x80, 0xbe,
  0xb2, 0xf6, 0xff, 0xff, 0x04, 0x00, 0x00, 0x00, 0x10, 0x00, 0x00, 0x00,
  0x1a, 0xb7, 0x14, 0xbe, 0x72, 0x0a, 0xc6, 0x3d, 0xa5, 0x82, 0xc9, 0x3d,
  0xd2, 0x20, 0x02, 0xbe, 0xce, 0xf6, 0xff, 0xff, 0x04, 0x00, 0x00, 0x00,
  0x90, 0x00, 0x00, 0x00, 0xaa, 0xa5, 0x3b, 0xbe, 0x51, 0x9e, 0xa4, 0xbe,
  0x30, 0x37, 0xa1, 0xbe, 0x5c, 0xb3, 0x41, 0xbd, 0x31, 0x84, 0x83, 0xbe,
  0x56, 0x9e, 0x0b, 0x3d, 0xf8, 0x43, 0xba, 0xbe, 0xe9, 0x13, 0x47, 0x3e,
  0xce, 0x73, 0x84, 0xbe, 0xc3, 0xa2, 0x1b, 0x3d, 0x0c, 0xcd, 0x88, 0xbd,
  0xc4, 0x2d, 0xf4, 0x3b, 0xc7, 0xb8, 0xcf, 0xbb, 0xaf, 0xdf, 0x30, 0x3e,
  0xd6, 0x7e, 0x07, 0xbe, 0xfb, 0x34, 0x06, 0x3d, 0x43, 0x4a, 0xa8, 0x3d,
  0xb4, 0xae, 0xd4, 0x3d, 0xe6, 0x4d, 0x1c, 0x3e, 0x78, 0xb8, 0xe0, 0x3d,
  0x4b, 0x5e, 0x7e, 0x3b, 0xeb, 0x76, 0xa0, 0xbe, 0x29, 0xba, 0x34, 0x3e,
  0x91, 0x9f, 0x67, 0x3e, 0x0d, 0x93, 0x21, 0xbe, 0xbf, 0x24, 0x01, 0xbd,
  0xe5, 0xf6, 0x9d, 0xbe, 0xe5, 0x43, 0xf1, 0xbd, 0x3a, 0xf6, 0x5a, 0x3e,
  0x80, 0x86, 0x79, 0xbe, 0x1e, 0x65, 0x95, 0x3c, 0x69, 0x80, 0xb2, 0xbd,
  0x5e, 0x8a, 0x79, 0x3e, 0x60, 0x93, 0x92, 0xbd, 0x9e, 0xd9, 0x91, 0x3e,
  0xa1, 0xfa, 0xab, 0xbd, 0xe0, 0xf8, 0xff, 0xff, 0xe4, 0xf8, 0xff, 0xff,
  0xe8, 0xf8, 0xff, 0xff, 0xec, 0xf8, 0xff, 0xff, 0xf0, 0xf8, 0xff, 0xff,
  0xf4, 0xf8, 0xff, 0xff, 0xf8, 0xf8, 0xff, 0xff, 0xfc, 0xf8, 0xff, 0xff,
  0x8a, 0xf7, 0xff, 0xff, 0x04, 0x00, 0x00, 0x00, 0x64, 0x00, 0x00, 0x00,
  0xcc, 0xd0, 0x46, 0xbf, 0x5c, 0x50, 0xf5, 0x3e, 0xb2, 0x78, 0x48, 0x3f,
  0x7d, 0x85, 0xfd, 0x3e, 0x0c, 0xb6, 0x6e, 0xbe, 0x60, 0xc4, 0x4d, 0x3e,
  0xe5, 0xfd, 0xca, 0xbd, 0xd5, 0xbd, 0x09, 0x3f, 0x00, 0x9f, 0x47, 0xbf,
  0xe5, 0x22, 0x38, 0x3d, 0x86, 0xc5, 0xb5, 0x3e, 0x72, 0x6f, 0xab, 0x3e,
  0x8e, 0xa8, 0x01, 0xbf, 0x0e, 0xc1, 0xcc, 0x3b, 0x9c, 0x34, 0xc3, 0xbe,
  0xf0, 0x6a, 0x81, 0x3c, 0x3d, 0x10, 0xc1, 0xbb, 0x46, 0xde, 0x8e, 0xbe,
  0xc3, 0x33, 0x32, 0xbe, 0xf4, 0x3c, 0x0d, 0xbf, 0xa9, 0xac, 0x00, 0xb6,
  0x90, 0x1f, 0xd8, 0xb5, 0xf4, 0x41, 0x4e, 0xb5, 0xf2, 0x8b, 0x21, 0xb7,
  0xfe, 0x03, 0x7e, 0x37, 0x70, 0xf9, 0xff, 0xff, 0x74, 0xf9, 0xff, 0xff,
  0x78, 0xf9, 0xff, 0xff, 0x7c, 0xf9, 0xff, 0xff, 0x0c, 0x00, 0x14, 0x00,
  0x04, 0x00, 0x08, 0x00, 0x0c, 0x00, 0x10, 0x00, 0x0c, 0x00, 0x00, 0x00,
  0x20, 0x00, 0x00, 0x00, 0x14, 0x00, 0x00, 0x00, 0x08, 0x00, 0x00, 0x00,
  0x54, 0x05, 0x00, 0x00, 0x01, 0x00, 0x00, 0x00, 0x10, 0x00, 0x00, 0x00,
  0x01, 0x00, 0x00, 0x00, 0x06, 0x00, 0x00, 0x00, 0x13, 0x00, 0x00, 0x00,
  0x40, 0x04, 0x00, 0x00, 0x74, 0x01, 0x00, 0x00, 0xa8, 0x01, 0x00, 0x00,
  0x1c, 0x03, 0x00, 0x00, 0xec, 0x00, 0x00, 0x00, 0x24, 0x01, 0x00, 0x00,
  0xc4, 0x04, 0x00, 0x00, 0x8c, 0x02, 0x00, 0x00, 0x2c, 0x00, 0x00, 0x00,
  0x98, 0x00, 0x00, 0x00, 0x08, 0x02, 0x00, 0x00, 0x58, 0x00, 0x00, 0x00,
  0xcc, 0x03, 0x00, 0x00, 0x80, 0x03, 0x00, 0x00, 0xa8, 0x02, 0x00, 0x00,
  0x2c, 0x02, 0x00, 0x00, 0xb0, 0x01, 0x00, 0x00, 0x28, 0x03, 0x00, 0x00,
  0x38, 0x04, 0x00, 0x00, 0x7e, 0xfb, 0xff, 0xff, 0x10, 0x00, 0x00, 0x00,
  0x13, 0x00, 0x00, 0x00, 0x10, 0x00, 0x00, 0x00, 0x24, 0x00, 0x00, 0x00,
  0x01, 0x00, 0x00, 0x00, 0x05, 0x00, 0x00, 0x00, 0x11, 0x00, 0x00, 0x00,
  0x64, 0x65, 0x6e, 0x73, 0x65, 0x2f, 0x4d, 0x61, 0x74, 0x4d, 0x75, 0x6c,
  0x5f, 0x62, 0x69, 0x61, 0x73, 0x00, 0x00, 0x00, 0x34, 0xfa, 0xff, 0xff,
  0xb6, 0xfb, 0xff, 0xff, 0x10, 0x00, 0x00, 0x00, 0x12, 0x00, 0x00, 0x00,
  0x10, 0x00, 0x00, 0x00, 0x24, 0x00, 0x00, 0x00, 0x01, 0x00, 0x00, 0x00,
  0x05, 0x00, 0x00, 0x00, 0x13, 0x00, 0x00, 0x00, 0x64, 0x65, 0x6e, 0x73,
  0x65, 0x5f, 0x31, 0x2f, 0x4d, 0x61, 0x74, 0x4d, 0x75, 0x6c, 0x5f, 0x62,
  0x69, 0x61, 0x73, 0x00, 0x6c, 0xfa, 0xff, 0xff, 0xee, 0xfb, 0xff, 0xff,
  0x10, 0x00, 0x00, 0x00, 0x11, 0x00, 0x00, 0x00, 0x14, 0x00, 0x00, 0x00,
  0x2c, 0x00, 0x00, 0x00, 0x02, 0x00, 0x00, 0x00, 0x05, 0x00, 0x00, 0x00,
  0x90, 0x00, 0x00, 0x00, 0x16, 0x00, 0x00, 0x00, 0x64, 0x65, 0x6e, 0x73,
  0x65, 0x2f, 0x6b, 0x65, 0x72, 0x6e, 0x65, 0x6c, 0x2f, 0x74, 0x72, 0x61,
  0x6e, 0x73, 0x70, 0x6f, 0x73, 0x65, 0x00, 0x00, 0xac, 0xfa, 0xff, 0xff,
  0x2e, 0xfc, 0xff, 0xff, 0x10, 0x00, 0x00, 0x00, 0x10, 0x00, 0x00, 0x00,
  0x10, 0x00, 0x00, 0x00, 0x28, 0x00, 0x00, 0x00, 0x01, 0x00, 0x00, 0x00,
  0x04, 0x00, 0x00, 0x00, 0x14, 0x00, 0x00, 0x00, 0x63, 0x6f, 0x6e, 0x76,
  0x32, 0x64, 0x5f, 0x31, 0x2f, 0x43, 0x6f, 0x6e, 0x76, 0x32, 0x44, 0x5f,
  0x62, 0x69, 0x61, 0x73, 0x00, 0x00, 0x00, 0x00, 0xe8, 0xfa, 0xff, 0xff,
  0x6a, 0xfc, 0xff, 0xff, 0x10, 0x00, 0x00, 0x00, 0x0f, 0x00, 0x00, 0x00,
  0x1c, 0x00, 0x00, 0x00, 0x2c, 0x00, 0x00, 0x00, 0x04, 0x00, 0x00, 0x00,
  0x04, 0x00, 0x00, 0x00, 0x03, 0x00, 0x00, 0x00, 0x03, 0x00, 0x00, 0x00,
  0x04, 0x00, 0x00, 0x00, 0x0f, 0x00, 0x00, 0x00, 0x63, 0x6f, 0x6e, 0x76,
  0x32, 0x64, 0x5f, 0x31, 0x2f, 0x6b, 0x65, 0x72, 0x6e, 0x65, 0x6c, 0x00,
  0x28, 0xfb, 0xff, 0xff, 0xaa, 0xfc, 0xff, 0xff, 0x10, 0x00, 0x00, 0x00,
  0x0e, 0x00, 0x00, 0x00, 0x10, 0x00, 0x00, 0x00, 0x24, 0x00, 0x00, 0x00,
  0x01, 0x00, 0x00, 0x00, 0x04, 0x00, 0x00, 0x00, 0x12, 0x00, 0x00, 0x00,
  0x63, 0x6f, 0x6e, 0x76, 0x32, 0x64, 0x2f, 0x43, 0x6f, 0x6e, 0x76, 0x32,
  0x44, 0x5f, 0x62, 0x69, 0x61, 0x73, 0x00, 0x00, 0x60, 0xfb, 0xff, 0xff,
  0xe2, 0xfc, 0xff, 0xff, 0x10, 0x00, 0x00, 0x00, 0x0d, 0x00, 0x00, 0x00,
  0x1c, 0x00, 0x00, 0x00, 0x2c, 0x00, 0x00, 0x00, 0x04, 0x00, 0x00, 0x00,
  0x01, 0x00, 0x00, 0x00, 0x03, 0x00, 0x00, 0x00, 0x03, 0x00, 0x00, 0x00,
  0x04, 0x00, 0x00, 0x00, 0x0d, 0x00, 0x00, 0x00, 0x63, 0x6f, 0x6e, 0x76,
  0x32, 0x64, 0x2f, 0x6b, 0x65, 0x72, 0x6e, 0x65, 0x6c, 0x00, 0x00, 0x00,
  0xa0, 0xfb, 0xff, 0xff, 0x22, 0xfd, 0xff, 0xff, 0x10, 0x00, 0x00, 0x00,
  0x0c, 0x00, 0x00, 0x00, 0x14, 0x00, 0x00, 0x00, 0x2c, 0x00, 0x00, 0x00,
  0x02, 0x00, 0x00, 0x00, 0x01, 0x00, 0x00, 0x00, 0x05, 0x00, 0x00, 0x00,
  0x17, 0x00, 0x00, 0x00, 0x6c, 0x65, 0x61, 0x6b, 0x79, 0x5f, 0x72, 0x65,
  0x5f, 0x6c, 0x75, 0x5f, 0x33, 0x2f, 0x4c, 0x65, 0x61, 0x6b, 0x79, 0x52,
  0x65, 0x6c, 0x75, 0x00, 0xe0, 0xfb, 0xff, 0xff, 0x62, 0xfd, 0xff, 0xff,
  0x10, 0x00, 0x00, 0x00, 0x0b, 0x00, 0x00, 0x00, 0x14, 0x00, 0x00, 0x00,
  0x24, 0x00, 0x00, 0x00, 0x02, 0x00, 0x00, 0x00, 0x01, 0x00, 0x00, 0x00,
  0x05, 0x00, 0x00, 0x00, 0x0f, 0x00, 0x00, 0x00, 0x64, 0x65, 0x6e, 0x73,
  0x65, 0x5f, 0x31, 0x2f, 0x42, 0x69, 0x61, 0x73, 0x41, 0x64, 0x64, 0x00,
  0x18, 0xfc, 0xff, 0xff, 0x9a, 0xfd, 0xff, 0xff, 0x10, 0x00, 0x00, 0x00,
  0x0a, 0x00, 0x00, 0x00, 0x14, 0x00, 0x00, 0x00, 0x2c, 0x00, 0x00, 0x00,
  0x02, 0x00, 0x00, 0x00, 0x01, 0x00, 0x00, 0x00, 0x05, 0x00, 0x00, 0x00,
  0x17, 0x00, 0x00, 0x00, 0x6c, 0x65, 0x61, 0x6b, 0x79, 0x5f, 0x72, 0x65,
  0x5f, 0x6c, 0x75, 0x5f, 0x32, 0x2f, 0x4c, 0x65, 0x61, 0x6b, 0x79, 0x52,
  0x65, 0x6c, 0x75, 0x00, 0x58, 0xfc, 0xff, 0xff, 0xda, 0xfd, 0xff, 0xff,
  0x10, 0x00, 0x00, 0x00, 0x09, 0x00, 0x00, 0x00, 0x14, 0x00, 0x00, 0x00,
  0x24, 0x00, 0x00, 0x00, 0x02, 0x00, 0x00, 0x00, 0x01, 0x00, 0x00, 0x00,
  0x05, 0x00, 0x00, 0x00, 0x0d, 0x00, 0x00, 0x00, 0x64, 0x65, 0x6e, 0x73,
  0x65, 0x2f, 0x42, 0x69, 0x61, 0x73, 0x41, 0x64, 0x64, 0x00, 0x00, 0x00,
  0x90, 0xfc, 0xff, 0xff, 0x12, 0xfe, 0xff, 0xff, 0x10, 0x00, 0x00, 0x00,
  0x08, 0x00, 0x00, 0x00, 0x1c, 0x00, 0x00, 0x00, 0x34, 0x00, 0x00, 0x00,
  0x04, 0x00, 0x00, 0x00, 0x01, 0x00, 0x00, 0x00, 0x0d, 0x00, 0x00, 0x00,
  0x0d, 0x00, 0x00, 0x00, 0x04, 0x00, 0x00, 0x00, 0x17, 0x00, 0x00, 0x00,
  0x6c, 0x65, 0x61, 0x6b, 0x79, 0x5f, 0x72, 0x65, 0x5f, 0x6c, 0x75, 0x5f,
  0x31, 0x2f, 0x4c, 0x65, 0x61, 0x6b, 0x79, 0x52, 0x65, 0x6c, 0x75, 0x00,
  0xd8, 0xfc, 0xff, 0xff, 0x5a, 0xfe, 0xff, 0xff, 0x10, 0x00, 0x00, 0x00,
  0x07, 0x00, 0x00, 0x00, 0x1c, 0x00, 0x00, 0x00, 0x30, 0x00, 0x00, 0x00,
  0x04, 0x00, 0x00, 0x00, 0x01, 0x00, 0x00, 0x00, 0x0d, 0x00, 0x00, 0x00,
  0x0d, 0x00, 0x00, 0x00, 0x04, 0x00, 0x00, 0x00, 0x10, 0x00, 0x00, 0x00,
  0x63, 0x6f, 0x6e, 0x76, 0x32, 0x64, 0x5f, 0x31, 0x2f, 0x42, 0x69, 0x61,
  0x73, 0x41, 0x64, 0x64, 0x00, 0x00, 0x00, 0x00, 0x1c, 0xfd, 0xff, 0xff,
  0x9e, 0xfe, 0xff, 0xff, 0x10, 0x00, 0x00, 0x00, 0x06, 0x00, 0x00, 0x00,
  0x1c, 0x00, 0x00, 0x00, 0x34, 0x00, 0x00, 0x00, 0x04, 0x00, 0x00, 0x00,
  0x01, 0x00, 0x00, 0x00, 0x0f, 0x00, 0x00, 0x00, 0x0f, 0x00, 0x00, 0x00,
  0x04, 0x00, 0x00, 0x00, 0x15, 0x00, 0x00, 0x00, 0x6d, 0x61, 0x78, 0x5f,
  0x70, 0x6f, 0x6f, 0x6c, 0x69, 0x6e, 0x67, 0x32, 0x64, 0x2f, 0x4d, 0x61,
  0x78, 0x50, 0x6f, 0x6f, 0x6c, 0x00, 0x00, 0x00, 0x64, 0xfd, 0xff, 0xff,
  0xe6, 0xfe, 0xff, 0xff, 0x10, 0x00, 0x00, 0x00, 0x05, 0x00, 0x00, 0x00,
  0x1c, 0x00, 0x00, 0x00, 0x34, 0x00, 0x00, 0x00, 0x04, 0x00, 0x00, 0x00,
  0x01, 0x00, 0x00, 0x00, 0x1e, 0x00, 0x00, 0x00, 0x1e, 0x00, 0x00, 0x00,
  0x04, 0x00, 0x00, 0x00, 0x15, 0x00, 0x00, 0x00, 0x6c, 0x65, 0x61, 0x6b,
  0x79, 0x5f, 0x72, 0x65, 0x5f, 0x6c, 0x75, 0x2f, 0x4c, 0x65, 0x61, 0x6b,
  0x79, 0x52, 0x65, 0x6c, 0x75, 0x00, 0x00, 0x00, 0xac, 0xfd, 0xff, 0xff,
  0x2e, 0xff, 0xff, 0xff, 0x10, 0x00, 0x00, 0x00, 0x04, 0x00, 0x00, 0x00,
  0x14, 0x00, 0x00, 0x00, 0x30, 0x00, 0x00, 0x00, 0x02, 0x00, 0x00, 0x00,
  0x05, 0x00, 0x00, 0x00, 0x05, 0x00, 0x00, 0x00, 0x18, 0x00, 0x00, 0x00,
  0x64, 0x65, 0x6e, 0x73, 0x65, 0x5f, 0x31, 0x2f, 0x6b, 0x65, 0x72, 0x6e,
  0x65, 0x6c, 0x2f, 0x74, 0x72, 0x61, 0x6e, 0x73, 0x70, 0x6f, 0x73, 0x65,
  0x00, 0x00, 0x00, 0x00, 0xf0, 0xfd, 0xff, 0xff, 0x72, 0xff, 0xff, 0xff,
  0x10, 0x00, 0x00, 0x00, 0x03, 0x00, 0x00, 0x00, 0x1c, 0x00, 0x00, 0x00,
  0x2c, 0x00, 0x00, 0x00, 0x04, 0x00, 0x00, 0x00, 0x01, 0x00, 0x00, 0x00,
  0x1e, 0x00, 0x00, 0x00, 0x1e, 0x00, 0x00, 0x00, 0x04, 0x00, 0x00, 0x00,
  0x0e, 0x00, 0x00, 0x00, 0x63, 0x6f, 0x6e, 0x76, 0x32, 0x64, 0x2f, 0x42,
  0x69, 0x61, 0x73, 0x41, 0x64, 0x64, 0x00, 0x00, 0x30, 0xfe, 0xff, 0xff,
  0xb2, 0xff, 0xff, 0xff, 0x10, 0x00, 0x00, 0x00, 0x02, 0x00, 0x00, 0x00,
  0x1c, 0x00, 0x00, 0x00, 0x38, 0x00, 0x00, 0x00, 0x04, 0x00, 0x00, 0x00,
  0x01, 0x00, 0x00, 0x00, 0x06, 0x00, 0x00, 0x00, 0x06, 0x00, 0x00, 0x00,
  0x04, 0x00, 0x00, 0x00, 0x17, 0x00, 0x00, 0x00, 0x6d, 0x61, 0x78, 0x5f,
  0x70, 0x6f, 0x6f, 0x6c, 0x69, 0x6e, 0x67, 0x32, 0x64, 0x5f, 0x31, 0x2f,
  0x4d, 0x61, 0x78, 0x50, 0x6f, 0x6f, 0x6c, 0x00, 0x04, 0x00, 0x06, 0x00,
  0x04, 0x00, 0x00, 0x00, 0x00, 0x00, 0x0e, 0x00, 0x14, 0x00, 0x04, 0x00,
  0x00, 0x00, 0x08, 0x00, 0x0c, 0x00, 0x10, 0x00, 0x0e, 0x00, 0x00, 0x00,
  0x10, 0x00, 0x00, 0x00, 0x01, 0x00, 0x00, 0x00, 0x1c, 0x00, 0x00, 0x00,
  0x34, 0x00, 0x00, 0x00, 0x04, 0x00, 0x00, 0x00, 0x01, 0x00, 0x00, 0x00,
  0x20, 0x00, 0x00, 0x00, 0x20, 0x00, 0x00, 0x00, 0x01, 0x00, 0x00, 0x00,
  0x0c, 0x00, 0x00, 0x00, 0x63, 0x6f, 0x6e, 0x76, 0x32, 0x64, 0x5f, 0x69,
  0x6e, 0x70, 0x75, 0x74, 0x00, 0x00, 0x00, 0x00, 0x08, 0x00, 0x0c, 0x00,
  0x04, 0x00, 0x08, 0x00, 0x08, 0x00, 0x00, 0x00, 0x10, 0x00, 0x00, 0x00,
  0x04, 0x00, 0x00, 0x00, 0x01, 0x00, 0x00, 0x00, 0x00, 0x00, 0x7f, 0x43,
  0x01, 0x00, 0x00, 0x00, 0x00, 0x00, 0x00, 0x00, 0x0a, 0x00, 0x00, 0x00,
  0xa4, 0x02, 0x00, 0x00, 0x4c, 0x02, 0x00, 0x00, 0xf0, 0x01, 0x00, 0x00,
  0x9c, 0x01, 0x00, 0x00, 0x4c, 0x01, 0x00, 0x00, 0x00, 0x01, 0x00, 0x00,
  0xbc, 0x00, 0x00, 0x00, 0x80, 0x00, 0x00, 0x00, 0x40, 0x00, 0x00, 0x00,
  0x04, 0x00, 0x00, 0x00, 0x98, 0xfd, 0xff, 0xff, 0x00, 0x00, 0x00, 0x4b,
  0x04, 0x00, 0x00, 0x00, 0x14, 0x00, 0x00, 0x00, 0x18, 0x00, 0x00, 0x00,
  0x1c, 0x00, 0x00, 0x00, 0x04, 0x00, 0x00, 0x00, 0x00, 0x00, 0x00, 0x00,
  0x01, 0x00, 0x00, 0x00, 0x0a, 0x00, 0x00, 0x00, 0x01, 0x00, 0x00, 0x00,
  0x10, 0x00, 0x00, 0x00, 0xd6, 0xfd, 0xff, 0xff, 0xcd, 0xcc, 0x4c, 0x3e,
  0xd0, 0xfd, 0xff, 0xff, 0x00, 0x00, 0x00, 0x08, 0x02, 0x00, 0x00, 0x00,
  0x14, 0x00, 0x00, 0x00, 0x20, 0x00, 0x00, 0x00, 0x24, 0x00, 0x00, 0x00,
  0x04, 0x00, 0x00, 0x00, 0x00, 0x00, 0x00, 0x00, 0x03, 0x00, 0x00, 0x00,
  0x0f, 0x00, 0x00, 0x00, 0x0c, 0x00, 0x00, 0x00, 0x0b, 0x00, 0x00, 0x00,
  0x01, 0x00, 0x00, 0x00, 0x0a, 0x00, 0x00, 0x00, 0x8c, 0xff, 0xff, 0xff,
  0x0c, 0xfe, 0xff, 0xff, 0x00, 0x00, 0x00, 0x4b, 0x04, 0x00, 0x00, 0x00,
  0x14, 0x00, 0x00, 0x00, 0x18, 0x00, 0x00, 0x00, 0x1c, 0x00, 0x00, 0x00,
  0x04, 0x00, 0x00, 0x00, 0x00, 0x00, 0x00, 0x00, 0x01, 0x00, 0x00, 0x00,
  0x07, 0x00, 0x00, 0x00, 0x01, 0x00, 0x00, 0x00, 0x0f, 0x00, 0x00, 0x00,
  0x4a, 0xfe, 0xff, 0xff, 0xcd, 0xcc, 0x4c, 0x3e, 0x44, 0xfe, 0xff, 0xff,
  0x00, 0x00, 0x00, 0x08, 0x02, 0x00, 0x00, 0x00, 0x14, 0x00, 0x00, 0x00,
  0x20, 0x00, 0x00, 0x00, 0x28, 0x00, 0x00, 0x00, 0x04, 0x00, 0x00, 0x00,
  0x00, 0x00, 0x00, 0x00, 0x03, 0x00, 0x00, 0x00, 0x12, 0x00, 0x00, 0x00,
  0x09, 0x00, 0x00, 0x00, 0x08, 0x00, 0x00, 0x00, 0x01, 0x00, 0x00, 0x00,
  0x07, 0x00, 0x00, 0x00, 0x04, 0x00, 0x04, 0x00, 0x04, 0x00, 0x00, 0x00,
  0x84, 0xfe, 0xff, 0xff, 0x00, 0x00, 0x00, 0x05, 0x03, 0x00, 0x00, 0x00,
  0x14, 0x00, 0x00, 0x00, 0x18, 0x00, 0x00, 0x00, 0x1c, 0x00, 0x00, 0x00,
  0x04, 0x00, 0x00, 0x00, 0x00, 0x00, 0x00, 0x00, 0x01, 0x00, 0x00, 0x00,
  0x0e, 0x00, 0x00, 0x00, 0x01, 0x00, 0x00, 0x00, 0x12, 0x00, 0x00, 0x00,
  0x1a, 0xff, 0xff, 0xff, 0x00, 0x00, 0x00, 0x01, 0x02, 0x00, 0x00, 0x00,
  0x02, 0x00, 0x00, 0x00, 0x02, 0x00, 0x00, 0x00, 0x02, 0x00, 0x00, 0x00,
  0xcc, 0xfe, 0xff, 0xff, 0x00, 0x00, 0x00, 0x4b, 0x04, 0x00, 0x00, 0x00,
  0x14, 0x00, 0x00, 0x00, 0x18, 0x00, 0x00, 0x00, 0x1c, 0x00, 0x00, 0x00,
  0x04, 0x00, 0x00, 0x00, 0x00, 0x00, 0x00, 0x00, 0x01, 0x00, 0x00, 0x00,
  0x03, 0x00, 0x00, 0x00, 0x01, 0x00, 0x00, 0x00, 0x0e, 0x00, 0x00, 0x00,
  0x0a, 0xff, 0xff, 0xff, 0xcd, 0xcc, 0x4c, 0x3e, 0x14, 0x00, 0x18, 0x00,
  0x00, 0x00, 0x08, 0x00, 0x0c, 0x00, 0x07, 0x00, 0x10, 0x00, 0x00, 0x00,
  0x00, 0x00, 0x14, 0x00, 0x14, 0x00, 0x00, 0x00, 0x00, 0x00, 0x00, 0x01,
  0x14, 0x00, 0x00, 0x00, 0x20, 0x00, 0x00, 0x00, 0x30, 0x00, 0x00, 0x00,
  0x04, 0x00, 0x00, 0x00, 0x00, 0x00, 0x00, 0x00, 0x03, 0x00, 0x00, 0x00,
  0x11, 0x00, 0x00, 0x00, 0x05, 0x00, 0x00, 0x00, 0x04, 0x00, 0x00, 0x00,
  0x01, 0x00, 0x00, 0x00, 0x03, 0x00, 0x00, 0x00, 0x00, 0x00, 0x0a, 0x00,
  0x10, 0x00, 0x07, 0x00, 0x08, 0x00, 0x0c, 0x00, 0x0a, 0x00, 0x00, 0x00,
  0x00, 0x00, 0x00, 0x01, 0x01, 0x00, 0x00, 0x00, 0x01, 0x00, 0x00, 0x00,
  0x68, 0xff, 0xff, 0xff, 0x00, 0x00, 0x00, 0x05, 0x03, 0x00, 0x00, 0x00,
  0x14, 0x00, 0x00, 0x00, 0x18, 0x00, 0x00, 0x00, 0x2c, 0x00, 0x00, 0x00,
  0x04, 0x00, 0x00, 0x00, 0x00, 0x00, 0x00, 0x00, 0x01, 0x00, 0x00, 0x00,
  0x0d, 0x00, 0x00, 0x00, 0x01, 0x00, 0x00, 0x00, 0x11, 0x00, 0x00, 0x00,
  0x00, 0x00, 0x0e, 0x00, 0x18, 0x00, 0x07, 0x00, 0x08, 0x00, 0x0c, 0x00,
  0x10, 0x00, 0x14, 0x00, 0x0e, 0x00, 0x00, 0x00, 0x00, 0x00, 0x00, 0x01,
  0x02, 0x00, 0x00, 0x00, 0x02, 0x00, 0x00, 0x00, 0x02, 0x00, 0x00, 0x00,
  0x02, 0x00, 0x00, 0x00, 0xc0, 0xff, 0xff, 0xff, 0x00, 0x00, 0x00, 0x4b,
  0x04, 0x00, 0x00, 0x00, 0x14, 0x00, 0x00, 0x00, 0x18, 0x00, 0x00, 0x00,
  0x24, 0x00, 0x00, 0x00, 0x04, 0x00, 0x00, 0x00, 0x00, 0x00, 0x00, 0x00,
  0x01, 0x00, 0x00, 0x00, 0x00, 0x00, 0x00, 0x00, 0x01, 0x00, 0x00, 0x00,
  0x0d, 0x00, 0x00, 0x00, 0x00, 0x00, 0x06, 0x00, 0x08, 0x00, 0x04, 0x00,
  0x06, 0x00, 0x00, 0x00, 0xcd, 0xcc, 0x4c, 0x3e, 0x14, 0x00, 0x1c, 0x00,
  0x08, 0x00, 0x0c, 0x00, 0x10, 0x00, 0x07, 0x00, 0x14, 0x00, 0x00, 0x00,
  0x00, 0x00, 0x18, 0x00, 0x14, 0x00, 0x00, 0x00, 0x00, 0x00, 0x00, 0x02,
  0x01, 0x00, 0x00, 0x00, 0x14, 0x00, 0x00, 0x00, 0x20, 0x00, 0x00, 0x00,
  0x30, 0x00, 0x00, 0x00, 0x04, 0x00, 0x00, 0x00, 0x00, 0x00, 0x00, 0x00,
  0x03, 0x00, 0x00, 0x00, 0x06, 0x00, 0x00, 0x00, 0x02, 0x00, 0x00, 0x00,
  0x01, 0x00, 0x00, 0x00, 0x01, 0x00, 0x00, 0x00, 0x00, 0x00, 0x00, 0x00,
  0x0c, 0x00, 0x14, 0x00, 0x07, 0x00, 0x08, 0x00, 0x0c, 0x00, 0x10, 0x00,
  0x0c, 0x00, 0x00, 0x00, 0x00, 0x00, 0x00, 0x01, 0x01, 0x00, 0x00, 0x00,
  0x01, 0x00, 0x00, 0x00, 0x04, 0x00, 0x00, 0x00, 0x05, 0x00, 0x00, 0x00,
  0x44, 0x00, 0x00, 0x00, 0x60, 0x00, 0x00, 0x00, 0x14, 0x00, 0x00, 0x00,
  0x28, 0x00, 0x00, 0x00, 0x04, 0x00, 0x00, 0x00, 0xb6, 0xff, 0xff, 0xff,
  0x00, 0x00, 0x00, 0x62, 0xbe, 0xff, 0xff, 0xff, 0x00, 0x00, 0x00, 0x09,
  0xc6, 0xff, 0xff, 0xff, 0x00, 0x00, 0x00, 0x62, 0xce, 0xff, 0xff, 0xff,
  0x00, 0x00, 0x00, 0x09, 0xd6, 0xff, 0xff, 0xff, 0x00, 0x00, 0x00, 0x11,
  0xde, 0xff, 0xff, 0xff, 0x00, 0x00, 0x00, 0x62, 0xe6, 0xff, 0xff, 0xff,
  0x00, 0x00, 0x00, 0x03, 0xfa, 0xff, 0xff, 0xff, 0x00, 0x11, 0x06, 0x00,
  0x06, 0x00, 0x05, 0x00, 0x06, 0x00, 0x00, 0x00, 0x00, 0x62, 0x06, 0x00,
  0x08, 0x00, 0x07, 0x00, 0x06, 0x00, 0x00, 0x00, 0x00, 0x00, 0x00, 0x04
};
const unsigned int converted_model_tflite_len = 6348;
