#include "model.h"

// Non quantified model

// We need to keep the data array aligned on some architectures.
#ifdef __has_attribute
#define HAVE_ATTRIBUTE(x) __has_attribute(x)
#else
#define HAVE_ATTRIBUTE(x) 0
#endif
#if HAVE_ATTRIBUTE(aligned) || (defined(__GNUC__) && !defined(__clang__))
#define DATA_ALIGN_ATTRIBUTE __attribute__((aligned(4)))
#else
#define DATA_ALIGN_ATTRIBUTE
#endif
const unsigned char converted_model_tflite[] DATA_ALIGN_ATTRIBUTE = {
  0x18, 0x00, 0x00, 0x00, 0x54, 0x46, 0x4c, 0x33, 0x00, 0x00, 0x0e, 0x00,
  0x18, 0x00, 0x04, 0x00, 0x08, 0x00, 0x0c, 0x00, 0x10, 0x00, 0x14, 0x00,
  0x0e, 0x00, 0x00, 0x00, 0x03, 0x00, 0x00, 0x00, 0x20, 0x23, 0x00, 0x00,
  0x0c, 0x00, 0x00, 0x00, 0x10, 0x00, 0x00, 0x00, 0x20, 0x00, 0x00, 0x00,
  0x01, 0x00, 0x00, 0x00, 0xac, 0x1a, 0x00, 0x00, 0x0f, 0x00, 0x00, 0x00,
  0x54, 0x4f, 0x43, 0x4f, 0x20, 0x43, 0x6f, 0x6e, 0x76, 0x65, 0x72, 0x74,
  0x65, 0x64, 0x2e, 0x00, 0x16, 0x00, 0x00, 0x00, 0x80, 0x1a, 0x00, 0x00,
  0x78, 0x1a, 0x00, 0x00, 0x54, 0x1a, 0x00, 0x00, 0x44, 0x1a, 0x00, 0x00,
  0x3c, 0x1a, 0x00, 0x00, 0x34, 0x1a, 0x00, 0x00, 0x10, 0x1a, 0x00, 0x00,
  0x08, 0x1a, 0x00, 0x00, 0x00, 0x1a, 0x00, 0x00, 0xf8, 0x19, 0x00, 0x00,
  0xf0, 0x19, 0x00, 0x00, 0xa0, 0x0e, 0x00, 0x00, 0x98, 0x0e, 0x00, 0x00,
  0x90, 0x0e, 0x00, 0x00, 0xf0, 0x0d, 0x00, 0x00, 0xd0, 0x0d, 0x00, 0x00,
  0x80, 0x0b, 0x00, 0x00, 0x60, 0x0b, 0x00, 0x00, 0xc0, 0x00, 0x00, 0x00,
  0x4c, 0x00, 0x00, 0x00, 0x28, 0x00, 0x00, 0x00, 0x04, 0x00, 0x00, 0x00,
  0x02, 0xe6, 0xff, 0xff, 0x04, 0x00, 0x00, 0x00, 0x14, 0x00, 0x00, 0x00,
  0xe9, 0x03, 0xfa, 0xbc, 0x68, 0xa1, 0x35, 0x3d, 0x51, 0xf6, 0xdb, 0xbd,
  0xe2, 0xdb, 0xae, 0x3c, 0x49, 0x16, 0xd8, 0x3b, 0x22, 0xe6, 0xff, 0xff,
  0x04, 0x00, 0x00, 0x00, 0x14, 0x00, 0x00, 0x00, 0xd4, 0x9b, 0x6f, 0x3d,
  0xac, 0x64, 0x80, 0xbe, 0xa6, 0x06, 0x88, 0xbc, 0x17, 0x3d, 0x0a, 0x3b,
  0x00, 0x00, 0x00, 0x00, 0x42, 0xe6, 0xff, 0xff, 0x04, 0x00, 0x00, 0x00,
  0x64, 0x00, 0x00, 0x00, 0xbd, 0x0f, 0x52, 0x3d, 0xea, 0x6d, 0xb0, 0x3e,
  0xf9, 0x16, 0x03, 0x3f, 0x6b, 0x93, 0xdd, 0xbe, 0x8e, 0xbe, 0x93, 0x3e,
  0x23, 0x47, 0x81, 0xbf, 0xdb, 0x0e, 0x9a, 0xbe, 0x39, 0xe5, 0xb2, 0x3f,
  0xd4, 0xca, 0x19, 0xbc, 0x87, 0xa3, 0x12, 0x3f, 0x44, 0x87, 0x21, 0x3d,
  0xe8, 0x5a, 0x19, 0x3e, 0x4f, 0xf1, 0x38, 0xbf, 0x4d, 0x99, 0x9e, 0x3e,
  0xfc, 0xd0, 0xd0, 0xbe, 0x29, 0xb9, 0xc4, 0x3e, 0x11, 0x4c, 0x62, 0xbc,
  0xaf, 0xf7, 0x88, 0xbc, 0x76, 0x91, 0x06, 0x3f, 0xb1, 0xd5, 0x10, 0xbf,
  0xf9, 0x69, 0xb2, 0xbe, 0x9e, 0xb9, 0x22, 0xbf, 0x78, 0xc0, 0x13, 0xbe,
  0x7d, 0xe1, 0x20, 0xbf, 0x0e, 0x0e, 0x39, 0xbf, 0xb2, 0xe6, 0xff, 0xff,
  0x04, 0x00, 0x00, 0x00, 0x90, 0x0a, 0x00, 0x00, 0x00, 0x00, 0x00, 0x00,
  0x00, 0x00, 0x00, 0x00, 0x70, 0xf4, 0xc1, 0x3b, 0x3c, 0x62, 0x97, 0xbd,
  0x00, 0x00, 0x00, 0x00, 0x00, 0x00, 0x00, 0x00, 0xfa, 0x9a, 0xe2, 0x3b,
  0x39, 0xe9, 0x92, 0x3b, 0x00, 0x00, 0x00, 0x00, 0x00, 0x00, 0x00, 0x00,
  0x06, 0xb3, 0xb8, 0xbd, 0x8d, 0x40, 0x94, 0x3b, 0x00, 0x00, 0x00, 0x00,
  0x00, 0x00, 0x00, 0x00, 0xb6, 0x3e, 0xa1, 0x3b, 0xa1, 0xb7, 0x8c, 0x3b,
  0x00, 0x00, 0x00, 0x00, 0x00, 0x00, 0x00, 0x00, 0x27, 0x12, 0x77, 0x3c,
  0x86, 0x64, 0xf1, 0xbc, 0x00, 0x00, 0x00, 0x00, 0x00, 0x00, 0x00, 0x00,
  0x62, 0x3d, 0xad, 0x3c, 0xfa, 0x54, 0xa9, 0x3b, 0x00, 0x00, 0x00, 0x00,
  0x00, 0x00, 0x00, 0x00, 0x12, 0xec, 0x65, 0x3d, 0xe1, 0x8f, 0x09, 0x39,
  0x00, 0x00, 0x00, 0x00, 0x00, 0x00, 0x00, 0x00, 0xba, 0xf2, 0x74, 0x3d,
  0x10, 0xf0, 0xe9, 0xbb, 0x00, 0x00, 0x00, 0x00, 0x00, 0x00, 0x00, 0x00,
  0x09, 0x8d, 0x54, 0xbc, 0x9b, 0x39, 0xe2, 0x3c, 0x00, 0x00, 0x00, 0x00,
  0x00, 0x00, 0x00, 0x00, 0x5d, 0xad, 0x03, 0x3c, 0x69, 0x88, 0xf0, 0x3c,
  0x00, 0x00, 0x00, 0x00, 0x00, 0x00, 0x00, 0x00, 0x82, 0x17, 0x89, 0xbc,
  0xae, 0x05, 0xc3, 0xbc, 0x00, 0x00, 0x00, 0x00, 0x00, 0x00, 0x00, 0x00,
  0x7a, 0x1c, 0x84, 0x3c, 0xf7, 0xa1, 0xac, 0x3b, 0x00, 0x00, 0x00, 0x00,
  0x00, 0x00, 0x00, 0x00, 0x00, 0x00, 0x00, 0x00, 0x00, 0x00, 0x00, 0x00,
  0x00, 0x00, 0x00, 0x00, 0x00, 0x00, 0x00, 0x00, 0x9c, 0x08, 0xce, 0x3b,
  0xc8, 0xd7, 0x9e, 0x3b, 0x00, 0x00, 0x00, 0x00, 0x00, 0x00, 0x00, 0x00,
  0xcc, 0x33, 0x8e, 0xbd, 0x0d, 0xb6, 0x94, 0x3b, 0x00, 0x00, 0x00, 0x00,
  0x00, 0x00, 0x00, 0x00, 0x8e, 0x91, 0x9e, 0x3b, 0x1e, 0x42, 0x23, 0xbd,
  0x00, 0x00, 0x00, 0x00, 0x00, 0x00, 0x00, 0x00, 0x47, 0x6e, 0x87, 0x3b,
  0x0d, 0x0f, 0x88, 0x3b, 0x00, 0x00, 0x00, 0x00, 0x00, 0x00, 0x00, 0x00,
  0x90, 0x3c, 0x87, 0x3c, 0x12, 0x36, 0xa6, 0x3b, 0x00, 0x00, 0x00, 0x00,
  0x00, 0x00, 0x00, 0x00, 0x18, 0xd2, 0xa3, 0x3c, 0x05, 0xc7, 0xab, 0x3b,
  0x00, 0x00, 0x00, 0x00, 0x00, 0x00, 0x00, 0x00, 0x4c, 0x9d, 0x6f, 0x3d,
  0x00, 0x00, 0x00, 0x00, 0x00, 0x00, 0x00, 0x00, 0x00, 0x00, 0x00, 0x00,
  0x58, 0x39, 0x78, 0x3d, 0x00, 0x00, 0x00, 0x00, 0x00, 0x00, 0x00, 0x00,
  0x00, 0x00, 0x00, 0x00, 0xc3, 0x56, 0xa7, 0x3b, 0x62, 0xcf, 0x00, 0x3d,
  0x00, 0x00, 0x00, 0x00, 0x00, 0x00, 0x00, 0x00, 0x46, 0x14, 0xa6, 0x3b,
  0xf6, 0x14, 0x8f, 0x3c, 0x00, 0x00, 0x00, 0x00, 0x00, 0x00, 0x00, 0x00,
  0x76, 0xe3, 0x59, 0x3c, 0xc0, 0x51, 0xa7, 0x3b, 0x00, 0x00, 0x00, 0x00,
  0x00, 0x00, 0x00, 0x00, 0x2a, 0x5c, 0x5e, 0x3c, 0xf2, 0x08, 0x9f, 0x3b,
  0x00, 0x00, 0x00, 0x00, 0x00, 0x00, 0x00, 0x00, 0x00, 0x00, 0x00, 0x00,
  0x00, 0x00, 0x00, 0x00, 0x00, 0x00, 0x00, 0x00, 0x00, 0x00, 0x00, 0x00,
  0xbe, 0xc0, 0x19, 0x3d, 0xbd, 0x62, 0xab, 0x3b, 0x00, 0x00, 0x00, 0x00,
  0x00, 0x00, 0x00, 0x00, 0x27, 0x9f, 0x1b, 0x3d, 0x7d, 0x71, 0x1b, 0xbd,
  0x00, 0x00, 0x00, 0x00, 0x00, 0x00, 0x00, 0x00, 0x52, 0xed, 0xf7, 0x3b,
  0x06, 0xc3, 0x8d, 0x3c, 0x00, 0x00, 0x00, 0x00, 0x00, 0x00, 0x00, 0x00,
  0xcb, 0x18, 0x1c, 0x3b, 0x49, 0x8b, 0x64, 0x3c, 0x00, 0x00, 0x00, 0x00,
  0x00, 0x00, 0x00, 0x00, 0xcc, 0x36, 0x91, 0xbc, 0xbc, 0x80, 0xc8, 0x3c,
  0x00, 0x00, 0x00, 0x00, 0x00, 0x00, 0x00, 0x00, 0x00, 0x00, 0x00, 0x00,
  0x1f, 0x26, 0xab, 0x3c, 0x00, 0x00, 0x00, 0x00, 0x00, 0x00, 0x00, 0x00,
  0xcc, 0xf8, 0x03, 0x3d, 0xa9, 0xc8, 0x33, 0x3d, 0x00, 0x00, 0x00, 0x00,
  0x00, 0x00, 0x00, 0x00, 0x42, 0x61, 0x2f, 0x3d, 0xc1, 0x44, 0x1b, 0x3d,
  0x00, 0x00, 0x00, 0x00, 0x00, 0x00, 0x00, 0x00, 0xed, 0x83, 0x28, 0x3d,
  0xca, 0xd1, 0x24, 0xbd, 0x00, 0x00, 0x00, 0x00, 0x00, 0x00, 0x00, 0x00,
  0x2b, 0x2b, 0xc2, 0x3c, 0x00, 0x00, 0x00, 0x00, 0x00, 0x00, 0x00, 0x00,
  0x00, 0x00, 0x00, 0x00, 0xc5, 0x10, 0x1e, 0x3d, 0x07, 0x3f, 0x82, 0x39,
  0x00, 0x00, 0x00, 0x00, 0x00, 0x00, 0x00, 0x00, 0xee, 0xd1, 0x15, 0x3d,
  0x01, 0xb3, 0xd0, 0x39, 0x00, 0x00, 0x00, 0x00, 0x00, 0x00, 0x00, 0x00,
  0x00, 0x00, 0x00, 0x00, 0x00, 0x00, 0x00, 0x00, 0x00, 0x00, 0x00, 0x00,
  0x00, 0x00, 0x00, 0x00, 0x10, 0xf6, 0x1d, 0x3d, 0x3c, 0x04, 0xa0, 0x3b,
  0x00, 0x00, 0x00, 0x00, 0x00, 0x00, 0x00, 0x00, 0xad, 0xc6, 0x24, 0x3d,
  0xe4, 0x9c, 0xa7, 0x3b, 0x00, 0x00, 0x00, 0x00, 0x00, 0x00, 0x00, 0x00,
  0x75, 0x0b, 0xf3, 0x3b, 0x5c, 0x80, 0x84, 0x3c, 0x00, 0x00, 0x00, 0x00,
  0x00, 0x00, 0x00, 0x00, 0x5b, 0x37, 0xb7, 0x3b, 0xc1, 0x60, 0x85, 0x3c,
  0x00, 0x00, 0x00, 0x00, 0x00, 0x00, 0x00, 0x00, 0x00, 0x00, 0x00, 0x00,
  0x52, 0x33, 0xab, 0x3c, 0x00, 0x00, 0x00, 0x00, 0x00, 0x00, 0x00, 0x00,
  0x00, 0x00, 0x00, 0x00, 0x79, 0xb7, 0xca, 0x3c, 0x00, 0x00, 0x00, 0x00,
  0x00, 0x00, 0x00, 0x00, 0x5f, 0x4f, 0x19, 0x3d, 0x8f, 0x6e, 0x14, 0x3d,
  0x00, 0x00, 0x00, 0x00, 0x00, 0x00, 0x00, 0x00, 0xf8, 0x25, 0x40, 0x3d,
  0x4b, 0x59, 0x04, 0x3d, 0x00, 0x00, 0x00, 0x00, 0x00, 0x00, 0x00, 0x00,
  0x55, 0x44, 0xc1, 0x3c, 0x00, 0x00, 0x00, 0x00, 0x00, 0x00, 0x00, 0x00,
  0x00, 0x00, 0x00, 0x00, 0xb2, 0xcd, 0x16, 0x3d, 0x00, 0x00, 0x00, 0x00,
  0x00, 0x00, 0x00, 0x00, 0x00, 0x00, 0x00, 0x00, 0x84, 0x82, 0x1d, 0x3d,
  0x93, 0x16, 0x5a, 0xbb, 0x00, 0x00, 0x00, 0x00, 0x00, 0x00, 0x00, 0x00,
  0xf5, 0xc6, 0x08, 0x3d, 0x00, 0x00, 0x00, 0x00, 0x00, 0x00, 0x00, 0x00,
  0x00, 0x00, 0x00, 0x00, 0x00, 0x00, 0x00, 0x00, 0x00, 0x00, 0x00, 0x00,
  0x00, 0x00, 0x00, 0x00, 0x00, 0x00, 0x00, 0x00, 0x4b, 0x02, 0x82, 0x39,
  0x6f, 0xb2, 0x98, 0xbc, 0x00, 0x00, 0x00, 0x00, 0x00, 0x00, 0x00, 0x00,
  0xaa, 0x5a, 0x34, 0x3b, 0x00, 0x00, 0x00, 0x00, 0x00, 0x00, 0x00, 0x00,
  0x00, 0x00, 0x00, 0x00, 0xa7, 0x09, 0xfe, 0x39, 0x1e, 0x0b, 0x32, 0x3a,
  0x00, 0x00, 0x00, 0x00, 0x00, 0x00, 0x00, 0x00, 0xa9, 0x94, 0x4f, 0x3b,
  0x27, 0xd2, 0x48, 0x3b, 0x00, 0x00, 0x00, 0x00, 0x00, 0x00, 0x00, 0x00,
  0x08, 0xbf, 0xed, 0x39, 0x07, 0x0d, 0x2c, 0x3d, 0x00, 0x00, 0x00, 0x00,
  0x00, 0x00, 0x00, 0x00, 0xf6, 0x15, 0x50, 0x3b, 0x98, 0xee, 0x16, 0x3d,
  0x00, 0x00, 0x00, 0x00, 0x00, 0x00, 0x00, 0x00, 0x37, 0xe8, 0x0f, 0x3d,
  0xb1, 0xf2, 0x68, 0x38, 0x00, 0x00, 0x00, 0x00, 0x00, 0x00, 0x00, 0x00,
  0xf5, 0xe5, 0x17, 0x3d, 0xab, 0x84, 0x44, 0x3b, 0x00, 0x00, 0x00, 0x00,
  0x00, 0x00, 0x00, 0x00, 0x33, 0xcd, 0x40, 0x3c, 0xb1, 0x3c, 0x08, 0x3d,
  0x00, 0x00, 0x00, 0x00, 0x00, 0x00, 0x00, 0x00, 0x27, 0x32, 0x79, 0x3c,
  0x78, 0x60, 0x03, 0x3d, 0x00, 0x00, 0x00, 0x00, 0x00, 0x00, 0x00, 0x00,
  0x80, 0x70, 0x24, 0x3c, 0x78, 0xd8, 0xa5, 0xbc, 0x00, 0x00, 0x00, 0x00,
  0x00, 0x00, 0x00, 0x00, 0x12, 0x0c, 0x18, 0x3c, 0x00, 0x00, 0x00, 0x00,
  0x00, 0x00, 0x00, 0x00, 0x00, 0x00, 0x00, 0x00, 0x00, 0x00, 0x00, 0x00,
  0x00, 0x00, 0x00, 0x00, 0x00, 0x00, 0x00, 0x00, 0x00, 0x00, 0x00, 0x00,
  0x2a, 0x3a, 0xeb, 0xbb, 0x00, 0x00, 0x00, 0x00, 0x00, 0x00, 0x00, 0x00,
  0x00, 0x00, 0x00, 0x00, 0x00, 0x00, 0x00, 0x00, 0x00, 0x00, 0x00, 0x00,
  0x00, 0x00, 0x00, 0x00, 0x00, 0x00, 0x00, 0x00, 0xf9, 0x92, 0x4f, 0x3b,
  0x44, 0x10, 0xfc, 0xba, 0x00, 0x00, 0x00, 0x00, 0x00, 0x00, 0x00, 0x00,
  0xfa, 0xf4, 0xa3, 0xbc, 0xf0, 0x1c, 0x2f, 0x3a, 0x00, 0x00, 0x00, 0x00,
  0x00, 0x00, 0x00, 0x00, 0xac, 0x4f, 0x2a, 0xbc, 0x09, 0x78, 0x19, 0x3d,
  0x00, 0x00, 0x00, 0x00, 0x00, 0x00, 0x00, 0x00, 0x00, 0x00, 0x00, 0x00,
  0xe0, 0x6c, 0x22, 0x3d, 0x00, 0x00, 0x00, 0x00, 0x00, 0x00, 0x00, 0x00,
  0xdf, 0x76, 0x02, 0x3d, 0x11, 0x47, 0xcc, 0xbc, 0x00, 0x00, 0x00, 0x00,
  0x00, 0x00, 0x00, 0x00, 0x62, 0x42, 0x09, 0x3d, 0x00, 0x00, 0x00, 0x00,
  0x00, 0x00, 0x00, 0x00, 0x00, 0x00, 0x00, 0x00, 0xcf, 0x5e, 0x8a, 0x3c,
  0xa7, 0xd3, 0x8d, 0x3c, 0x00, 0x00, 0x00, 0x00, 0x00, 0x00, 0x00, 0x00,
  0xed, 0xdd, 0x8b, 0x3c, 0x79, 0x3c, 0xbb, 0x3c, 0x00, 0x00, 0x00, 0x00,
  0x00, 0x00, 0x00, 0x00, 0xcc, 0xe4, 0x23, 0x3c, 0x00, 0x00, 0x00, 0x00,
  0x00, 0x00, 0x00, 0x00, 0x00, 0x00, 0x00, 0x00, 0x42, 0x90, 0x92, 0xbb,
  0x00, 0x00, 0x00, 0x00, 0x00, 0x00, 0x00, 0x00, 0x00, 0x00, 0x00, 0x00,
  0x00, 0x00, 0x00, 0x00, 0x00, 0x00, 0x00, 0x00, 0x00, 0x00, 0x00, 0x00,
  0x00, 0x00, 0x00, 0x00, 0x99, 0x7b, 0xfb, 0x3c, 0xe4, 0xdf, 0x6c, 0x3c,
  0x00, 0x00, 0x00, 0x00, 0x00, 0x00, 0x00, 0x00, 0xa0, 0xea, 0x00, 0x3d,
  0x73, 0xd3, 0x5e, 0x3c, 0x00, 0x00, 0x00, 0x00, 0x00, 0x00, 0x00, 0x00,
  0x3b, 0xba, 0x2d, 0xbd, 0x69, 0x72, 0x5f, 0x3b, 0x00, 0x00, 0x00, 0x00,
  0x00, 0x00, 0x00, 0x00, 0x00, 0x00, 0x00, 0x00, 0x36, 0x57, 0x5b, 0x3b,
  0x00, 0x00, 0x00, 0x00, 0x00, 0x00, 0x00, 0x00, 0x7b, 0x08, 0x87, 0x3c,
  0x6d, 0xbd, 0x71, 0x3c, 0x00, 0x00, 0x00, 0x00, 0x00, 0x00, 0x00, 0x00,
  0x10, 0xe6, 0x97, 0x3c, 0x69, 0xeb, 0x8c, 0x3c, 0x00, 0x00, 0x00, 0x00,
  0x00, 0x00, 0x00, 0x00, 0x2a, 0xc1, 0x90, 0xbd, 0xd9, 0x89, 0xf8, 0x3c,
  0x00, 0x00, 0x00, 0x00, 0x00, 0x00, 0x00, 0x00, 0x00, 0x00, 0x00, 0x00,
  0x0d, 0x70, 0xdf, 0x3c, 0x00, 0x00, 0x00, 0x00, 0x00, 0x00, 0x00, 0x00,
  0xf5, 0x79, 0x54, 0x3b, 0x36, 0x8c, 0x9c, 0x3c, 0x00, 0x00, 0x00, 0x00,
  0x00, 0x00, 0x00, 0x00, 0x02, 0x9c, 0x34, 0xbc, 0xb9, 0x1f, 0xa4, 0x3c,
  0x00, 0x00, 0x00, 0x00, 0x00, 0x00, 0x00, 0x00, 0xc9, 0x62, 0xeb, 0x3c,
  0x2a, 0xc5, 0x0b, 0xbd, 0x00, 0x00, 0x00, 0x00, 0x00, 0x00, 0x00, 0x00,
  0xf7, 0xfd, 0x0e, 0x3d, 0x00, 0x00, 0x00, 0x00, 0x00, 0x00, 0x00, 0x00,
  0x00, 0x00, 0x00, 0x00, 0x00, 0x00, 0x00, 0x00, 0x00, 0x00, 0x00, 0x00,
  0x00, 0x00, 0x00, 0x00, 0x00, 0x00, 0x00, 0x00, 0x1b, 0xe1, 0xe4, 0x3c,
  0x15, 0x23, 0x3c, 0x3c, 0x00, 0x00, 0x00, 0x00, 0x00, 0x00, 0x00, 0x00,
  0x3c, 0xc5, 0x00, 0x3d, 0x8d, 0xc7, 0x4c, 0x3c, 0x00, 0x00, 0x00, 0x00,
  0x00, 0x00, 0x00, 0x00, 0x00, 0x00, 0x00, 0x00, 0xcf, 0x4e, 0x5a, 0x3b,
  0x00, 0x00, 0x00, 0x00, 0x00, 0x00, 0x00, 0x00, 0x00, 0x00, 0x00, 0x00,
  0x56, 0xbd, 0x27, 0xbd, 0x00, 0x00, 0x00, 0x00, 0x00, 0x00, 0x00, 0x00,
  0x80, 0x02, 0xbf, 0x3c, 0x83, 0xd8, 0x8d, 0x3c, 0x00, 0x00, 0x00, 0x00,
  0x00, 0x00, 0x00, 0x00, 0xb4, 0x70, 0x9d, 0x3c, 0xa9, 0x28, 0x95, 0x3c,
  0x00, 0x00, 0x00, 0x00, 0x00, 0x00, 0x00, 0x00, 0x00, 0x00, 0x00, 0x00,
  0xc3, 0x46, 0xdb, 0x3c, 0x00, 0x00, 0x00, 0x00, 0x00, 0x00, 0x00, 0x00,
  0x00, 0x00, 0x00, 0x00, 0xc6, 0x10, 0xf7, 0x3c, 0x00, 0x00, 0x00, 0x00,
  0x00, 0x00, 0x00, 0x00, 0x27, 0xbb, 0xa1, 0x3b, 0xb4, 0xfb, 0xa9, 0x3c,
  0x00, 0x00, 0x00, 0x00, 0x00, 0x00, 0x00, 0x00, 0xe9, 0x6a, 0xb8, 0x3b,
  0x0f, 0x69, 0x91, 0xbb, 0x00, 0x00, 0x00, 0x00, 0x00, 0x00, 0x00, 0x00,
  0xfb, 0x1b, 0xfd, 0x3c, 0x00, 0x00, 0x00, 0x00, 0x00, 0x00, 0x00, 0x00,
  0x00, 0x00, 0x00, 0x00, 0x38, 0xaf, 0x0c, 0x3d, 0x00, 0x00, 0x00, 0x00,
  0x00, 0x00, 0x00, 0x00, 0x00, 0x00, 0x00, 0x00, 0x00, 0x00, 0x00, 0x00,
  0x00, 0x00, 0x00, 0x00, 0x00, 0x00, 0x00, 0x00, 0x00, 0x00, 0x00, 0x00,
  0x33, 0x0f, 0x2c, 0x3d, 0xf8, 0x0d, 0x67, 0xbc, 0x00, 0x00, 0x00, 0x00,
  0x00, 0x00, 0x00, 0x00, 0x98, 0x3e, 0x32, 0x3d, 0x00, 0x00, 0x00, 0x00,
  0x00, 0x00, 0x00, 0x00, 0x00, 0x00, 0x00, 0x00, 0xed, 0xe8, 0xab, 0x3d,
  0x76, 0xce, 0x67, 0x3c, 0x00, 0x00, 0x00, 0x00, 0x00, 0x00, 0x00, 0x00,
  0x7f, 0xe0, 0xb7, 0x3d, 0xd3, 0x93, 0x82, 0x3c, 0x00, 0x00, 0x00, 0x00,
  0x00, 0x00, 0x00, 0x00, 0x6a, 0x4e, 0x05, 0x3d, 0xe3, 0x84, 0x63, 0x3d,
  0x00, 0x00, 0x00, 0x00, 0x00, 0x00, 0x00, 0x00, 0xd9, 0xf2, 0xff, 0x3c,
  0x5e, 0xe7, 0x46, 0x3d, 0x00, 0x00, 0x00, 0x00, 0x00, 0x00, 0x00, 0x00,
  0x61, 0xed, 0x0b, 0x3b, 0x36, 0x12, 0x49, 0xbd, 0x00, 0x00, 0x00, 0x00,
  0x00, 0x00, 0x00, 0x00, 0x86, 0x3c, 0x1f, 0x3b, 0x00, 0x00, 0x00, 0x00,
  0x00, 0x00, 0x00, 0x00, 0x00, 0x00, 0x00, 0x00, 0xa3, 0xf1, 0xac, 0x3d,
  0x81, 0xd4, 0xeb, 0xbc, 0x00, 0x00, 0x00, 0x00, 0x00, 0x00, 0x00, 0x00,
  0xa6, 0x48, 0xae, 0x3d, 0xab, 0xf1, 0x06, 0x3b, 0x00, 0x00, 0x00, 0x00,
  0x00, 0x00, 0x00, 0x00, 0x8c, 0x7c, 0x91, 0xbc, 0xe1, 0x13, 0x93, 0x3c,
  0x00, 0x00, 0x00, 0x00, 0x00, 0x00, 0x00, 0x00, 0x00, 0x00, 0x00, 0x00,
  0x08, 0x79, 0xd5, 0x3c, 0x00, 0x00, 0x00, 0x00, 0x00, 0x00, 0x00, 0x00,
  0x00, 0x00, 0x00, 0x00, 0x00, 0x00, 0x00, 0x00, 0x00, 0x00, 0x00, 0x00,
  0x00, 0x00, 0x00, 0x00, 0x6d, 0xab, 0x23, 0x3d, 0x00, 0x00, 0x00, 0x00,
  0x00, 0x00, 0x00, 0x00, 0x00, 0x00, 0x00, 0x00, 0xd9, 0xc7, 0x2c, 0x3d,
  0x00, 0x00, 0x00, 0x00, 0x00, 0x00, 0x00, 0x00, 0x00, 0x00, 0x00, 0x00,
  0xcd, 0x67, 0xbd, 0x3d, 0xf5, 0x14, 0x47, 0x3c, 0x00, 0x00, 0x00, 0x00,
  0x00, 0x00, 0x00, 0x00, 0x94, 0x48, 0xb6, 0x3d, 0xa9, 0xac, 0x6b, 0x3c,
  0x00, 0x00, 0x00, 0x00, 0x00, 0x00, 0x00, 0x00, 0x24, 0xb8, 0x11, 0x3d,
  0xe9, 0x2e, 0x65, 0x3d, 0x00, 0x00, 0x00, 0x00, 0x00, 0x00, 0x00, 0x00,
  0xd1, 0x10, 0x14, 0x3d, 0xdf, 0x3a, 0x66, 0x3d, 0x00, 0x00, 0x00, 0x00,
  0x00, 0x00, 0x00, 0x00, 0x42, 0xd2, 0x26, 0xb8, 0x00, 0x00, 0x00, 0x00,
  0x00, 0x00, 0x00, 0x00, 0x00, 0x00, 0x00, 0x00, 0x49, 0xed, 0x9b, 0xbd,
  0x00, 0x00, 0x00, 0x00, 0x00, 0x00, 0x00, 0x00, 0x00, 0x00, 0x00, 0x00,
  0x95, 0xd9, 0xaf, 0x3d, 0xc1, 0x34, 0x33, 0x3b, 0x00, 0x00, 0x00, 0x00,
  0x00, 0x00, 0x00, 0x00, 0xd0, 0x8e, 0x92, 0x3d, 0x5f, 0x17, 0x6e, 0x3b,
  0x00, 0x00, 0x00, 0x00, 0x00, 0x00, 0x00, 0x00, 0x00, 0x00, 0x00, 0x00,
  0x5d, 0x74, 0x38, 0x3c, 0x00, 0x00, 0x00, 0x00, 0x00, 0x00, 0x00, 0x00,
  0x00, 0x00, 0x00, 0x00, 0xdc, 0x49, 0xc8, 0x3c, 0x00, 0x00, 0x00, 0x00,
  0x00, 0x00, 0x00, 0x00, 0x00, 0x00, 0x00, 0x00, 0x00, 0x00, 0x00, 0x00,
  0x00, 0x00, 0x00, 0x00, 0x00, 0x00, 0x00, 0x00, 0x8b, 0x8b, 0x9a, 0x3d,
  0xe3, 0x5f, 0x65, 0xbd, 0x00, 0x00, 0x00, 0x00, 0x00, 0x00, 0x00, 0x00,
  0x75, 0x44, 0x9b, 0x3d, 0x00, 0x00, 0x00, 0x00, 0x00, 0x00, 0x00, 0x00,
  0x00, 0x00, 0x00, 0x00, 0x00, 0xf3, 0x8e, 0xbd, 0xcd, 0x0c, 0xf7, 0xbc,
  0x00, 0x00, 0x00, 0x00, 0x00, 0x00, 0x00, 0x00, 0x00, 0x00, 0x00, 0x00,
  0x00, 0x00, 0x00, 0x00, 0x00, 0x00, 0x00, 0x00, 0x00, 0x00, 0x00, 0x00,
  0x1c, 0xcf, 0xa2, 0x3c, 0x95, 0xaf, 0x4a, 0x39, 0x00, 0x00, 0x00, 0x00,
  0x00, 0x00, 0x00, 0x00, 0xa8, 0xe0, 0xbe, 0x3c, 0x56, 0x54, 0x68, 0xbc,
  0x00, 0x00, 0x00, 0x00, 0x00, 0x00, 0x00, 0x00, 0x04, 0xdb, 0xc1, 0xbc,
  0x4e, 0x05, 0xef, 0xbc, 0x00, 0x00, 0x00, 0x00, 0x00, 0x00, 0x00, 0x00,
  0x2f, 0xcf, 0x3c, 0x3c, 0x00, 0x00, 0x00, 0x00, 0x00, 0x00, 0x00, 0x00,
  0x00, 0x00, 0x00, 0x00, 0xd3, 0xe5, 0x46, 0x3b, 0x1d, 0xa2, 0x3d, 0x3d,
  0x00, 0x00, 0x00, 0x00, 0x00, 0x00, 0x00, 0x00, 0xff, 0x06, 0xd0, 0xbd,
  0x3a, 0x72, 0x3d, 0x3d, 0x00, 0x00, 0x00, 0x00, 0x00, 0x00, 0x00, 0x00,
  0x99, 0x60, 0x06, 0x3c, 0xce, 0x68, 0xab, 0x3b, 0x00, 0x00, 0x00, 0x00,
  0x00, 0x00, 0x00, 0x00, 0x66, 0x67, 0x12, 0x3c, 0xde, 0x3a, 0x86, 0xbd,
  0x00, 0x00, 0x00, 0x00, 0x00, 0x00, 0x00, 0x00, 0x00, 0x00, 0x00, 0x00,
  0x00, 0x00, 0x00, 0x00, 0x00, 0x00, 0x00, 0x00, 0x00, 0x00, 0x00, 0x00,
  0x87, 0x4e, 0x9a, 0x3d, 0x00, 0x00, 0x00, 0x00, 0x00, 0x00, 0x00, 0x00,
  0x00, 0x00, 0x00, 0x00, 0x74, 0x51, 0x93, 0x3d, 0x00, 0x00, 0x00, 0x00,
  0x00, 0x00, 0x00, 0x00, 0x00, 0x00, 0x00, 0x00, 0x00, 0x00, 0x00, 0x00,
  0x00, 0x00, 0x00, 0x00, 0x00, 0x00, 0x00, 0x00, 0x00, 0x00, 0x00, 0x00,
  0x00, 0x00, 0x00, 0x00, 0x00, 0x00, 0x00, 0x00, 0x00, 0x00, 0x00, 0x00,
  0x00, 0x00, 0x00, 0x00, 0xa0, 0xec, 0xb3, 0x3c, 0x00, 0x00, 0x00, 0x00,
  0x00, 0x00, 0x00, 0x00, 0x00, 0x00, 0x00, 0x00, 0xc2, 0x7b, 0xb5, 0x3c,
  0x00, 0x00, 0x00, 0x00, 0x00, 0x00, 0x00, 0x00, 0x00, 0x00, 0x00, 0x00,
  0xec, 0x28, 0x5c, 0x3c, 0x00, 0x00, 0x00, 0x00, 0x00, 0x00, 0x00, 0x00,
  0x00, 0x00, 0x00, 0x00, 0x4e, 0x25, 0x33, 0x3c, 0x00, 0x00, 0x00, 0x00,
  0x00, 0x00, 0x00, 0x00, 0x00, 0x00, 0x00, 0x00, 0xb1, 0x53, 0x3a, 0x3b,
  0x5d, 0x94, 0x4e, 0x3d, 0x00, 0x00, 0x00, 0x00, 0x00, 0x00, 0x00, 0x00,
  0x58, 0xfd, 0x48, 0x3b, 0xe8, 0x7f, 0x2e, 0x3d, 0x00, 0x00, 0x00, 0x00,
  0x00, 0x00, 0x00, 0x00, 0x3c, 0x8f, 0x98, 0xbd, 0x16, 0x25, 0xa0, 0x3a,
  0x00, 0x00, 0x00, 0x00, 0x00, 0x00, 0x00, 0x00, 0xa4, 0x69, 0x15, 0x3c,
  0xcb, 0xd7, 0xb0, 0x3b, 0x00, 0x00, 0x00, 0x00, 0x00, 0x00, 0x00, 0x00,
  0x00, 0x00, 0x00, 0x00, 0x00, 0x00, 0x00, 0x00, 0x00, 0x00, 0x00, 0x00,
  0x00, 0x00, 0x00, 0x00, 0x00, 0x00, 0x00, 0x00, 0x00, 0x00, 0x00, 0x00,
  0x00, 0x00, 0x00, 0x00, 0x00, 0x00, 0x00, 0x00, 0x00, 0x00, 0x00, 0x00,
  0x00, 0x00, 0x00, 0x00, 0x00, 0x00, 0x00, 0x00, 0x00, 0x00, 0x00, 0x00,
  0x00, 0x00, 0x00, 0x00, 0x00, 0x00, 0x00, 0x00, 0x00, 0x00, 0x00, 0x00,
  0x00, 0x00, 0x00, 0x00, 0x00, 0x00, 0x00, 0x00, 0x00, 0x00, 0x00, 0x00,
  0x00, 0x00, 0x00, 0x00, 0x00, 0x00, 0x00, 0x00, 0x00, 0x00, 0x00, 0x00,
  0x00, 0x00, 0x00, 0x00, 0x00, 0x00, 0x00, 0x00, 0x00, 0x00, 0x00, 0x00,
  0x00, 0x00, 0x00, 0x00, 0x00, 0x00, 0x00, 0x00, 0x00, 0x00, 0x00, 0x00,
  0x00, 0x00, 0x00, 0x00, 0x00, 0x00, 0x00, 0x00, 0x00, 0x00, 0x00, 0x00,
  0x00, 0x00, 0x00, 0x00, 0x00, 0x00, 0x00, 0x00, 0x00, 0x00, 0x00, 0x00,
  0x00, 0x00, 0x00, 0x00, 0x00, 0x00, 0x00, 0x00, 0x00, 0x00, 0x00, 0x00,
  0x00, 0x00, 0x00, 0x00, 0x00, 0x00, 0x00, 0x00, 0x00, 0x00, 0x00, 0x00,
  0x00, 0x00, 0x00, 0x00, 0x00, 0x00, 0x00, 0x00, 0x00, 0x00, 0x00, 0x00,
  0x00, 0x00, 0x00, 0x00, 0x00, 0x00, 0x00, 0x00, 0x00, 0x00, 0x00, 0x00,
  0x00, 0x00, 0x00, 0x00, 0x00, 0x00, 0x00, 0x00, 0x00, 0x00, 0x00, 0x00,
  0x00, 0x00, 0x00, 0x00, 0x00, 0x00, 0x00, 0x00, 0x00, 0x00, 0x00, 0x00,
  0x00, 0x00, 0x00, 0x00, 0x00, 0x00, 0x00, 0x00, 0x00, 0x00, 0x00, 0x00,
  0x4e, 0xf1, 0xff, 0xff, 0x04, 0x00, 0x00, 0x00, 0x10, 0x00, 0x00, 0x00,
  0x6d, 0x19, 0x29, 0x3c, 0x1a, 0x94, 0x09, 0x3c, 0x29, 0x21, 0xe1, 0x3d,
  0x75, 0x3c, 0x23, 0x3d, 0x6a, 0xf1, 0xff, 0xff, 0x04, 0x00, 0x00, 0x00,
  0x40, 0x02, 0x00, 0x00, 0xdb, 0x9a, 0xc9, 0xbc, 0xb6, 0x36, 0x9e, 0x3d,
  0xb0, 0x9b, 0x2c, 0xbe, 0x57, 0x00, 0x00, 0x3e, 0x3a, 0xb5, 0x19, 0x3c,
  0x45, 0x29, 0x6b, 0xbe, 0x7a, 0xf4, 0xe9, 0x3d, 0x77, 0xd5, 0xc5, 0x3c,
  0x36, 0x05, 0x0e, 0x3d, 0xcf, 0x5d, 0x69, 0x3c, 0x52, 0xb0, 0x01, 0xbe,
  0x5b, 0xb7, 0x28, 0xbd, 0x9d, 0xb3, 0x50, 0x3d, 0x39, 0x07, 0x13, 0xbe,
  0xfa, 0x16, 0xb0, 0xbc, 0xbe, 0x57, 0x29, 0x3d, 0xe9, 0x7e, 0x9a, 0xbd,
  0xe5, 0x20, 0x00, 0x3e, 0x81, 0x69, 0xf1, 0x3d, 0x5b, 0x5c, 0x2c, 0x3d,
  0x03, 0x1a, 0x1c, 0xbc, 0xe0, 0x02, 0x76, 0x3e, 0xb4, 0x6a, 0x35, 0x3e,
  0x26, 0x58, 0x02, 0x3e, 0x75, 0x3c, 0xaa, 0x3c, 0xf5, 0x1d, 0x05, 0x3e,
  0xe6, 0x4e, 0x16, 0x3e, 0xb9, 0x40, 0x08, 0x3e, 0x30, 0x97, 0x2d, 0x3d,
  0xd4, 0x1d, 0x4f, 0xbe, 0x5c, 0x09, 0xf1, 0xbd, 0x90, 0x42, 0x85, 0xbe,
  0x20, 0x28, 0x9b, 0x3c, 0x17, 0x74, 0x2c, 0xbe, 0x13, 0xe5, 0xeb, 0x3d,
  0x0b, 0xbe, 0x2f, 0x3c, 0x48, 0x15, 0xf5, 0x3d, 0xc5, 0xb5, 0xb5, 0x3c,
  0xd0, 0xbb, 0x34, 0x3e, 0x1f, 0xc8, 0x40, 0x3e, 0x31, 0x67, 0x4c, 0xbe,
  0xcc, 0xe0, 0x4a, 0x3d, 0x84, 0xf2, 0xce, 0xbc, 0x43, 0xab, 0xe4, 0x3d,
  0x0c, 0xa4, 0x5e, 0x3e, 0xc6, 0x04, 0x42, 0xbe, 0x75, 0x84, 0x8c, 0xbd,
  0xa8, 0x2c, 0x7d, 0xbd, 0x53, 0x3c, 0xc0, 0x3c, 0x97, 0xb0, 0x5c, 0xbe,
  0xed, 0x98, 0x99, 0xbd, 0x3f, 0x97, 0x34, 0xbd, 0x32, 0x32, 0xe5, 0xbc,
  0x34, 0xed, 0x83, 0x3e, 0x88, 0x5a, 0x2f, 0xbd, 0xf9, 0x87, 0x6d, 0xbe,
  0xe1, 0x10, 0x30, 0x3c, 0x51, 0x9f, 0x06, 0xbe, 0xe8, 0x20, 0xe1, 0xbd,
  0xe2, 0x21, 0x44, 0xbe, 0xf0, 0x79, 0xe4, 0xbd, 0x43, 0xba, 0x60, 0x3e,
  0x56, 0xf5, 0xe3, 0xbd, 0x0e, 0x5c, 0x74, 0x3d, 0xeb, 0x04, 0x1e, 0xbe,
  0x67, 0xea, 0x01, 0xbe, 0x13, 0x6a, 0xe6, 0xbc, 0xc0, 0xc0, 0xc8, 0xbd,
  0x5e, 0x50, 0x3b, 0x3e, 0xa2, 0x00, 0xd3, 0xbd, 0x63, 0x12, 0xca, 0xbd,
  0x7e, 0xe2, 0xbd, 0xbc, 0x64, 0x3b, 0xcd, 0xbe, 0x47, 0x20, 0x8b, 0x3e,
  0x5a, 0x9f, 0x97, 0xbe, 0x65, 0xa8, 0xa2, 0xbe, 0x7a, 0x10, 0x1d, 0xbe,
  0x55, 0x3c, 0x43, 0x3e, 0x52, 0xbf, 0xaa, 0x3e, 0x83, 0xfd, 0x9f, 0xbe,
  0x64, 0xbc, 0x01, 0xbf, 0xe7, 0x66, 0xa9, 0x3e, 0xa5, 0xa8, 0x14, 0x3e,
  0xe3, 0x51, 0xeb, 0x3c, 0xa1, 0xdc, 0xee, 0x3c, 0xa6, 0x6d, 0x15, 0x3e,
  0x03, 0xc9, 0x43, 0xbe, 0x1c, 0x3b, 0xa3, 0xbc, 0xe4, 0x6d, 0xdc, 0xbd,
  0xbe, 0x43, 0x1a, 0xbd, 0x5e, 0x0a, 0xfa, 0x3e, 0x85, 0xc2, 0xec, 0xbe,
  0x9e, 0x5b, 0x8b, 0xbe, 0xb8, 0x7e, 0xe8, 0xbd, 0x91, 0xf7, 0x24, 0x3e,
  0x61, 0x2c, 0xf3, 0xbe, 0x80, 0xc2, 0x8f, 0xbe, 0x4f, 0x63, 0x05, 0xbc,
  0xe0, 0xc9, 0x01, 0xbe, 0x57, 0x66, 0x67, 0x3d, 0x5f, 0xf4, 0x38, 0xbe,
  0x58, 0x7d, 0xce, 0x3e, 0x40, 0x5e, 0xb2, 0x3e, 0x16, 0xd4, 0xdb, 0xbe,
  0x0e, 0x44, 0x64, 0xbc, 0xf0, 0xfb, 0x60, 0x3e, 0x64, 0x27, 0xb2, 0x3e,
  0x6c, 0xb3, 0xb5, 0xbe, 0xf7, 0x90, 0xcd, 0x3d, 0x43, 0xbd, 0xc1, 0x3e,
  0xe9, 0x9f, 0xbd, 0x3e, 0x90, 0x02, 0x17, 0xbe, 0xcd, 0x55, 0x4d, 0xbc,
  0x63, 0x92, 0xfd, 0x3c, 0x8b, 0x39, 0x83, 0x3e, 0xe3, 0x5f, 0x06, 0xbe,
  0xd8, 0x96, 0x46, 0x3e, 0xdb, 0x41, 0x17, 0x3e, 0x6b, 0x64, 0xb1, 0x3d,
  0x82, 0xed, 0xb6, 0x3d, 0x30, 0x27, 0x78, 0xbd, 0x30, 0x55, 0x69, 0x3d,
  0xed, 0xa2, 0xf0, 0xbc, 0xcd, 0x9f, 0x52, 0x3d, 0xcb, 0x41, 0x14, 0x3e,
  0x0b, 0x4b, 0xe5, 0x3e, 0x62, 0x57, 0x7f, 0x3e, 0xfc, 0xcc, 0xcd, 0xbe,
  0xc4, 0xa3, 0x43, 0x3e, 0x30, 0x82, 0x66, 0xbe, 0x90, 0x86, 0x8c, 0x3e,
  0x9c, 0x07, 0xa7, 0xbc, 0x4c, 0x25, 0xef, 0xbe, 0x4f, 0xc9, 0x96, 0x3e,
  0xae, 0xef, 0x8a, 0x3e, 0x33, 0xb4, 0xa5, 0x3d, 0x4e, 0x63, 0xcf, 0x3e,
  0x0d, 0x9a, 0xf4, 0x3e, 0x8b, 0x79, 0x27, 0x3f, 0xfe, 0x98, 0x7d, 0xb9,
  0xf8, 0x80, 0x1c, 0x3e, 0xc1, 0x8c, 0xa9, 0xbd, 0xcc, 0x23, 0xe3, 0x3e,
  0xc2, 0x53, 0x1e, 0x3d, 0xb6, 0xf3, 0xff, 0xff, 0x04, 0x00, 0x00, 0x00,
  0x10, 0x00, 0x00, 0x00, 0xa6, 0xd1, 0x06, 0xbd, 0xa4, 0x10, 0x29, 0x3c,
  0x90, 0xcb, 0x3b, 0x3c, 0x87, 0x7e, 0x32, 0xbd, 0xd2, 0xf3, 0xff, 0xff,
  0x04, 0x00, 0x00, 0x00, 0x90, 0x00, 0x00, 0x00, 0xbf, 0x65, 0x14, 0x3e,
  0x00, 0xb3, 0x33, 0xbe, 0x03, 0x4e, 0x47, 0xbe, 0xd1, 0x8a, 0x91, 0x3e,
  0x68, 0xbe, 0x13, 0xbe, 0xb0, 0xc8, 0x81, 0xbe, 0x18, 0x22, 0x47, 0x3e,
  0x0a, 0x30, 0x79, 0x3e, 0x0a, 0x06, 0x20, 0xbd, 0x1f, 0x8d, 0xb1, 0xbd,
  0xbb, 0x61, 0x8d, 0x3d, 0xbe, 0x33, 0x9a, 0xbd, 0x48, 0xe5, 0x69, 0x3e,
  0x99, 0xf7, 0xcc, 0xbd, 0xd8, 0xc8, 0x84, 0xbe, 0x8a, 0x01, 0x8b, 0xbe,
  0x80, 0x3a, 0x45, 0xbc, 0xc4, 0x9a, 0x38, 0xbe, 0x0a, 0x70, 0x83, 0xbe,
  0x2d, 0x5c, 0xaa, 0xbd, 0xdf, 0xb8, 0x0d, 0x3e, 0x36, 0x3e, 0x96, 0x3e,
  0x65, 0x37, 0x74, 0x3e, 0xd2, 0x2f, 0x1a, 0xbe, 0xfd, 0x61, 0x63, 0xbe,
  0x13, 0x87, 0x71, 0x3e, 0x7d, 0xf6, 0x26, 0xbe, 0x1a, 0x6b, 0x3e, 0x3e,
  0xc7, 0x5e, 0x78, 0xbe, 0x21, 0x9c, 0x50, 0xbd, 0x35, 0xed, 0x8e, 0x3e,
  0x85, 0xb9, 0x9d, 0x3d, 0x5a, 0x27, 0x86, 0x3e, 0xfb, 0xac, 0x5e, 0xbe,
  0x4f, 0x7b, 0x50, 0xbe, 0xcf, 0x75, 0x9e, 0x3b, 0x8c, 0xed, 0xff, 0xff,
  0x90, 0xed, 0xff, 0xff, 0x76, 0xf4, 0xff, 0xff, 0x04, 0x00, 0x00, 0x00,
  0x40, 0x0b, 0x00, 0x00, 0x27, 0xf5, 0xbb, 0xbd, 0xd1, 0xf0, 0x54, 0x3e,
  0x0e, 0x4a, 0x38, 0x3e, 0xd8, 0x71, 0x26, 0x3e, 0x76, 0xdd, 0xc4, 0xbb,
  0xe0, 0x05, 0x8a, 0xbd, 0x5d, 0x6d, 0x45, 0x3e, 0x5d, 0xc9, 0x15, 0x3e,
  0x3c, 0x72, 0x76, 0xbd, 0x90, 0x3f, 0x06, 0xbe, 0x8f, 0x3f, 0xf9, 0x3d,
  0x57, 0x1c, 0x2a, 0x3d, 0x53, 0x94, 0xab, 0x3d, 0xca, 0x7a, 0xb9, 0x3c,
  0x47, 0xf0, 0x19, 0xbe, 0x29, 0x15, 0x64, 0x3d, 0xed, 0x19, 0x0d, 0x3e,
  0xd4, 0xe1, 0x36, 0xbb, 0x54, 0x99, 0xa5, 0x3d, 0xd8, 0x0c, 0xb3, 0xbe,
  0xe4, 0x3a, 0x25, 0x3d, 0x6f, 0x32, 0xb0, 0xbd, 0xea, 0x3e, 0xdd, 0x3d,
  0x07, 0xec, 0x68, 0x3d, 0x5e, 0xf5, 0x2b, 0xbe, 0xae, 0x29, 0x09, 0x3d,
  0x49, 0x82, 0x44, 0xbe, 0xd2, 0x9b, 0x77, 0x3e, 0xc3, 0x40, 0x9b, 0xbd,
  0xcf, 0x96, 0x23, 0x3e, 0x64, 0xde, 0x71, 0xbe, 0x2d, 0xc7, 0x7a, 0x3d,
  0xed, 0x1c, 0xc2, 0xbd, 0x92, 0x37, 0x03, 0x3e, 0x99, 0x14, 0x5b, 0xbd,
  0x2f, 0xe9, 0x81, 0x3d, 0x20, 0x26, 0x7d, 0xbd, 0xcb, 0x8e, 0x6d, 0x3e,
  0x80, 0x79, 0x68, 0xbe, 0x1e, 0xe2, 0x34, 0xbe, 0x68, 0xa3, 0x73, 0xbd,
  0xa9, 0x9e, 0xaa, 0xbd, 0x8f, 0x87, 0xb7, 0x3c, 0xf4, 0xd9, 0x90, 0x3e,
  0xa5, 0xe5, 0xcc, 0x3c, 0xfc, 0x2c, 0xb1, 0xbc, 0x1f, 0xad, 0x21, 0x3e,
  0x6b, 0xc7, 0x93, 0x3d, 0x3a, 0xb1, 0x75, 0xbd, 0xe2, 0x96, 0xa6, 0xbd,
  0x1c, 0xef, 0x2f, 0x3e, 0x5c, 0x50, 0x99, 0xbc, 0xc0, 0x9a, 0x4d, 0xbc,
  0xb2, 0xdf, 0x5c, 0x3c, 0x86, 0x05, 0x00, 0x3e, 0x0f, 0x24, 0x2f, 0x3e,
  0xe1, 0x37, 0x77, 0xbd, 0x34, 0x9b, 0x68, 0x3e, 0x7e, 0x28, 0x40, 0x3d,
  0x8e, 0x7a, 0x21, 0xbe, 0x47, 0x62, 0x10, 0x3e, 0x14, 0xd7, 0x6c, 0x3e,
  0x7c, 0x7c, 0x6a, 0xbe, 0x7b, 0x7f, 0xe0, 0x3c, 0x10, 0x43, 0x2b, 0xbc,
  0x38, 0x3b, 0x4f, 0x3e, 0xca, 0x8d, 0xa2, 0x3d, 0x4e, 0x1c, 0x59, 0xbb,
  0x8c, 0x26, 0xb4, 0xbd, 0x3e, 0x87, 0xfb, 0x3d, 0xa0, 0x51, 0x0e, 0xbd,
  0x42, 0x72, 0x80, 0xbc, 0x63, 0xab, 0xa2, 0xbd, 0xab, 0x71, 0x1c, 0x3d,
  0x3f, 0xd7, 0xc6, 0xbd, 0x4c, 0xd1, 0x2b, 0x3e, 0x31, 0x47, 0xfa, 0x3d,
  0x64, 0x59, 0x26, 0xbe, 0x5b, 0xc5, 0xd6, 0xbd, 0x05, 0xf0, 0x23, 0xbe,
  0x6c, 0xe9, 0xc7, 0x3d, 0xe3, 0xd8, 0x16, 0xbe, 0xd2, 0x69, 0xf2, 0xbd,
  0x19, 0x03, 0x9c, 0x3d, 0xec, 0xc9, 0xe6, 0xbd, 0xd5, 0xc0, 0xd7, 0x3d,
  0x7b, 0x28, 0x81, 0x3e, 0x64, 0x11, 0x9a, 0x3c, 0x16, 0xb9, 0x0d, 0xbe,
  0x79, 0x64, 0xdc, 0xbd, 0xbe, 0xa7, 0x9d, 0xbb, 0x73, 0xa7, 0x33, 0x3e,
  0x62, 0x5e, 0x5c, 0x3e, 0x92, 0xb1, 0xbf, 0xbd, 0x27, 0xde, 0x74, 0xbd,
  0x54, 0xa6, 0x21, 0x3d, 0x06, 0x57, 0x4d, 0x3e, 0x74, 0xf2, 0x46, 0x3c,
  0xcb, 0xa5, 0xb6, 0xbd, 0x0d, 0x8f, 0xa2, 0x3c, 0xef, 0x4c, 0x4b, 0x3d,
  0x32, 0x25, 0x0f, 0xbd, 0x46, 0xe4, 0x91, 0xbc, 0xc1, 0x9f, 0xb5, 0xbd,
  0x44, 0xf7, 0x25, 0x3c, 0x39, 0x46, 0x04, 0xbe, 0x05, 0x90, 0x55, 0x3e,
  0x9a, 0x8a, 0x46, 0x3e, 0x2f, 0x10, 0x66, 0xbe, 0xf5, 0x5f, 0x09, 0xbe,
  0x86, 0xcb, 0x59, 0xbe, 0x06, 0x34, 0x96, 0xbe, 0xbd, 0x4d, 0xac, 0xbd,
  0x4c, 0xb5, 0x98, 0xbd, 0xd6, 0x51, 0xff, 0x3d, 0x27, 0xad, 0x68, 0x3d,
  0x91, 0x17, 0x20, 0xbe, 0x26, 0x08, 0xc2, 0x3d, 0x1f, 0x19, 0x11, 0xbe,
  0xcb, 0x06, 0x0a, 0x3e, 0x81, 0x06, 0x19, 0xbe, 0xf3, 0xa3, 0x30, 0xbe,
  0x61, 0x01, 0xa3, 0xbc, 0x61, 0x84, 0x70, 0x3d, 0x8d, 0x88, 0x3f, 0xbc,
  0x29, 0x79, 0xd8, 0xbd, 0x38, 0x7f, 0x9d, 0xbd, 0x6d, 0x5a, 0xe6, 0x3d,
  0xbe, 0x39, 0x5d, 0xbe, 0x27, 0x51, 0x7f, 0xbe, 0x32, 0x4b, 0x1d, 0x3d,
  0x62, 0xa1, 0x6b, 0xbe, 0x76, 0xe8, 0x1f, 0xbe, 0x71, 0xd9, 0x12, 0xbe,
  0xb7, 0x58, 0x7f, 0xbd, 0x09, 0xd3, 0xa1, 0xbe, 0x3a, 0x97, 0xe0, 0x3d,
  0x69, 0x92, 0x79, 0x3d, 0x55, 0x22, 0xf8, 0xbd, 0x68, 0xe9, 0x97, 0x3e,
  0x0a, 0x50, 0xcf, 0x3d, 0x82, 0xc0, 0x71, 0x3c, 0xea, 0x58, 0x39, 0xbd,
  0x05, 0x95, 0xb2, 0xbc, 0x90, 0x48, 0x0e, 0xbe, 0x30, 0x7f, 0x18, 0x3e,
  0x2f, 0x23, 0x76, 0x3e, 0xb1, 0xb1, 0x77, 0x3e, 0x59, 0x0c, 0xa1, 0x3c,
  0xe4, 0x48, 0xc5, 0x3d, 0xff, 0x70, 0x88, 0x3d, 0x1f, 0xe8, 0x75, 0x3e,
  0x39, 0x98, 0x1d, 0x3e, 0xe7, 0x13, 0x7b, 0xbd, 0xe0, 0xaa, 0x87, 0x3d,
  0x63, 0xb7, 0x01, 0x3e, 0xa9, 0x8c, 0x91, 0xbc, 0x65, 0x79, 0x43, 0x3d,
  0x62, 0x5d, 0x6b, 0xbe, 0xca, 0x40, 0xd9, 0xbd, 0xac, 0x7d, 0xb4, 0xbc,
  0x49, 0x85, 0xe3, 0x3d, 0xc8, 0x6c, 0x36, 0x3e, 0xc9, 0xb7, 0x2c, 0xbd,
  0xe5, 0xf8, 0x2a, 0x3e, 0x36, 0xe4, 0xe8, 0xbd, 0xbe, 0xcb, 0xbc, 0x3c,
  0xdc, 0x01, 0xd2, 0x3d, 0xaf, 0xc8, 0x8d, 0x3d, 0x39, 0x07, 0x89, 0xbd,
  0x65, 0x6f, 0xb9, 0xbd, 0xaa, 0xd6, 0x17, 0x3e, 0xa5, 0xfb, 0xd9, 0xbd,
  0xed, 0x64, 0x0b, 0xbe, 0x79, 0x10, 0xa0, 0xbd, 0xde, 0x83, 0xff, 0xbd,
  0x3c, 0x25, 0x01, 0x3e, 0x30, 0x3a, 0xf5, 0x3c, 0x94, 0xe6, 0x28, 0xbd,
  0xb7, 0x3a, 0xa5, 0xbd, 0x9c, 0x28, 0x99, 0xbd, 0xdf, 0x05, 0xad, 0x3c,
  0xaa, 0x36, 0x3a, 0xbe, 0x1f, 0x73, 0x6a, 0xbe, 0xce, 0xee, 0x53, 0xbd,
  0xf2, 0x9c, 0xd9, 0x3d, 0x6c, 0xa6, 0x5f, 0xbd, 0xa3, 0x00, 0xdb, 0xbd,
  0xa4, 0xd9, 0xdf, 0xbd, 0x72, 0xa2, 0xb8, 0x3d, 0x4e, 0x80, 0x9a, 0xbd,
  0xd9, 0x79, 0x5f, 0xbd, 0x2c, 0xbd, 0x0c, 0x3e, 0xe7, 0x13, 0x9a, 0x3c,
  0xaa, 0x67, 0xee, 0xbd, 0x19, 0xab, 0x30, 0xbe, 0x7a, 0xeb, 0xd9, 0xbd,
  0xed, 0x3d, 0xf6, 0xbd, 0xd6, 0x23, 0x85, 0xbd, 0x72, 0x3b, 0x17, 0xbe,
  0xbc, 0xb3, 0x65, 0x3d, 0x9d, 0x6c, 0x12, 0xbe, 0xdc, 0x3a, 0xd5, 0xbd,
  0x5d, 0xd1, 0x50, 0xbe, 0xc0, 0x73, 0x95, 0xbd, 0x78, 0x25, 0xd1, 0xbc,
  0xf3, 0x48, 0x4d, 0x3e, 0xcf, 0xf2, 0x02, 0xbe, 0x6c, 0x1c, 0xc7, 0x3d,
  0x67, 0x8e, 0x1f, 0x3d, 0xb0, 0xca, 0x40, 0xbe, 0x54, 0x1a, 0x82, 0x3d,
  0xcb, 0xce, 0xec, 0x3d, 0xe8, 0xa4, 0x13, 0x3e, 0x1e, 0xb3, 0x32, 0x3c,
  0xdc, 0x63, 0x4b, 0xbe, 0xf2, 0x29, 0xe8, 0x3c, 0x3a, 0x37, 0x2e, 0xbe,
  0x56, 0x52, 0x4d, 0x3e, 0x05, 0x91, 0xe2, 0x3d, 0xfe, 0x5e, 0xa6, 0x3d,
  0x93, 0xea, 0x06, 0x3e, 0x6c, 0x95, 0xc6, 0x3b, 0x8c, 0x4d, 0xad, 0x3d,
  0xd6, 0x34, 0x0a, 0xbd, 0x24, 0xed, 0x8d, 0x3d, 0x55, 0x81, 0xa9, 0x3d,
  0xc9, 0xa0, 0x41, 0xbd, 0x5c, 0x57, 0x02, 0x3d, 0x9f, 0xf3, 0x19, 0xbd,
  0xa9, 0x28, 0x14, 0xbd, 0xa9, 0x99, 0x3f, 0x3e, 0x5e, 0x18, 0x2a, 0xbd,
  0x93, 0x0b, 0x92, 0x3d, 0x18, 0x7d, 0x09, 0x3e, 0xc3, 0x04, 0xa1, 0x3c,
  0xa3, 0x2a, 0x06, 0x3e, 0x0c, 0x04, 0x3f, 0x3e, 0xaf, 0xf0, 0x49, 0x3e,
  0xa2, 0xea, 0x6d, 0xbe, 0xc7, 0xfb, 0x01, 0xbe, 0x0d, 0xa9, 0x12, 0x3e,
  0x6d, 0xba, 0x2d, 0x3e, 0x17, 0x4a, 0x22, 0xbe, 0x58, 0x94, 0xf3, 0xbc,
  0xfd, 0x92, 0xcf, 0xbd, 0x58, 0x4c, 0x75, 0x3d, 0x03, 0x75, 0x2e, 0x3e,
  0x6f, 0x60, 0x6f, 0xbd, 0xac, 0x60, 0x02, 0x3d, 0x34, 0x7c, 0x57, 0x3e,
  0x36, 0x6a, 0x47, 0x3d, 0x63, 0x9d, 0xde, 0xbd, 0x46, 0x80, 0x4d, 0xbd,
  0x93, 0x2f, 0xab, 0x3d, 0x3f, 0x1d, 0x62, 0xbe, 0x66, 0x47, 0xb3, 0xbb,
  0x93, 0xef, 0xe6, 0x3d, 0x35, 0x28, 0x0d, 0xbd, 0x87, 0x6a, 0xae, 0x3d,
  0xa8, 0x1c, 0x17, 0x3e, 0x3f, 0x89, 0x94, 0xbd, 0x8d, 0x69, 0x3e, 0xbe,
  0xbf, 0xbf, 0xf8, 0x3c, 0x60, 0x5e, 0xb1, 0x3d, 0x84, 0x0c, 0x09, 0xbe,
  0x78, 0x55, 0x7d, 0x3e, 0xa5, 0x50, 0xdf, 0xbc, 0xa8, 0x92, 0xa3, 0xbd,
  0x25, 0x51, 0xfa, 0x3d, 0x04, 0xcc, 0x5c, 0xbe, 0xe0, 0x61, 0x4d, 0xbe,
  0x9a, 0x7e, 0xbf, 0xbd, 0x83, 0xfb, 0x05, 0xbe, 0x55, 0x25, 0x3f, 0x3e,
  0xfe, 0xfa, 0x17, 0xbe, 0xbf, 0xf1, 0x83, 0xbd, 0x33, 0x7e, 0x15, 0x3c,
  0x0a, 0x00, 0xc1, 0x3d, 0x69, 0x20, 0x14, 0xbe, 0xe0, 0x91, 0xfb, 0x3d,
  0x39, 0xab, 0x97, 0xba, 0x13, 0xaf, 0x9d, 0x3d, 0x64, 0x63, 0xbf, 0x3c,
  0x18, 0xd3, 0x95, 0xbd, 0x73, 0x89, 0x88, 0xbd, 0x22, 0x76, 0x14, 0x3e,
  0x51, 0x3d, 0x32, 0x3e, 0x8b, 0x25, 0x87, 0xbe, 0x0c, 0xaf, 0x90, 0xbd,
  0x4e, 0x61, 0x43, 0xbe, 0x4e, 0x65, 0x84, 0xbe, 0x41, 0x90, 0x98, 0xbd,
  0x80, 0x2a, 0x0e, 0xbe, 0x0f, 0xce, 0x94, 0xbe, 0xb8, 0x52, 0x8f, 0xbd,
  0x95, 0x27, 0x46, 0xbb, 0x96, 0x93, 0x13, 0xbe, 0x66, 0x51, 0x78, 0x3e,
  0x73, 0x0e, 0xa2, 0xbd, 0xea, 0x5f, 0x1a, 0xbe, 0xa4, 0xd0, 0x22, 0xbe,
  0x4f, 0x46, 0xb8, 0xbd, 0x0b, 0xf2, 0x9c, 0xbd, 0xd1, 0x89, 0x1d, 0xbd,
  0xad, 0x52, 0x80, 0xbc, 0xfc, 0x5a, 0x88, 0xbe, 0x92, 0xd1, 0x65, 0x3e,
  0xe3, 0xdf, 0x62, 0xbc, 0x29, 0x5c, 0x8f, 0xbe, 0x2a, 0x41, 0x55, 0xbd,
  0x9e, 0x18, 0x95, 0x3d, 0x75, 0xf9, 0x73, 0x3d, 0xc3, 0x69, 0xba, 0x3d,
  0xdb, 0x0a, 0xeb, 0x3d, 0x73, 0x87, 0xb9, 0x3c, 0x78, 0x6b, 0x32, 0xbe,
  0x08, 0xa1, 0x49, 0xbe, 0x39, 0x95, 0x6d, 0x3d, 0xa5, 0x7c, 0x58, 0x3d,
  0xed, 0x1d, 0x68, 0xbc, 0x84, 0xa5, 0xb0, 0xbc, 0x12, 0xad, 0xad, 0xbd,
  0xa3, 0x59, 0x86, 0xbd, 0xbb, 0x38, 0xb5, 0xbc, 0xfa, 0x6a, 0x2d, 0xbe,
  0x89, 0x5e, 0xbe, 0xbd, 0x49, 0x06, 0x69, 0x3e, 0x6a, 0xd0, 0x29, 0x3e,
  0xf7, 0xe8, 0x87, 0x3c, 0x4a, 0x55, 0x30, 0xbd, 0x14, 0x3f, 0x02, 0xbe,
  0x29, 0x76, 0x09, 0xbd, 0xc4, 0x6a, 0x9b, 0x3d, 0xe0, 0x08, 0x1c, 0xbe,
  0x9d, 0xf9, 0x6e, 0x3d, 0xc9, 0x02, 0xe3, 0x3c, 0xd7, 0x1c, 0x11, 0xbe,
  0xc2, 0xa0, 0x83, 0xbe, 0x63, 0x3a, 0xae, 0xbe, 0x08, 0x17, 0x03, 0xbe,
  0x3f, 0x34, 0x2e, 0x3e, 0x4e, 0xc7, 0xa1, 0x3d, 0x92, 0xbc, 0x7a, 0xbd,
  0x4e, 0x4d, 0xd0, 0x3c, 0xa9, 0xd1, 0xe1, 0xbc, 0xdc, 0x55, 0x45, 0x3e,
  0x93, 0xee, 0x79, 0xbe, 0x84, 0x3d, 0xe9, 0xbc, 0xda, 0xb8, 0x27, 0xbd,
  0x7f, 0xbe, 0x84, 0x3e, 0xbe, 0x9c, 0xde, 0x3d, 0x95, 0x8e, 0xfd, 0xbd,
  0x8d, 0x9d, 0x41, 0x3e, 0x76, 0x56, 0x01, 0xbc, 0xf5, 0x09, 0x22, 0xbd,
  0x33, 0x42, 0x3b, 0x3d, 0x5e, 0x30, 0x05, 0xbe, 0xeb, 0x84, 0x20, 0x3d,
  0x9c, 0xfd, 0x0b, 0x3e, 0xa7, 0xeb, 0x34, 0x3e, 0x7d, 0x7a, 0x07, 0xbe,
  0xa7, 0x02, 0x28, 0x3e, 0xca, 0xc7, 0x66, 0x3e, 0xe5, 0xa0, 0xdf, 0xbd,
  0xc6, 0x8e, 0x23, 0x3d, 0xf0, 0x6a, 0x00, 0xbb, 0xec, 0x99, 0xd2, 0x3d,
  0x48, 0xad, 0xf3, 0xbd, 0x74, 0xc0, 0x95, 0x3c, 0x2e, 0xd3, 0xb8, 0x3d,
  0x04, 0x8c, 0x37, 0x3d, 0x19, 0x05, 0x89, 0x3b, 0x4e, 0x58, 0x10, 0x3e,
  0x47, 0xe1, 0xab, 0xbd, 0x68, 0x3c, 0x92, 0x3d, 0xe0, 0x4a, 0x3d, 0xbe,
  0xc8, 0xe5, 0x31, 0x3e, 0xa9, 0x77, 0xc2, 0xbd, 0xe9, 0xd3, 0xb6, 0xbd,
  0xb2, 0x68, 0x25, 0xbd, 0xaa, 0x44, 0x82, 0xbd, 0xc3, 0xb2, 0xf4, 0xbd,
  0xf0, 0x0f, 0x1f, 0x3e, 0xaa, 0xfb, 0xc2, 0x3d, 0xad, 0x73, 0x5b, 0xbc,
  0xf7, 0x33, 0x0c, 0xbe, 0xf0, 0xac, 0x8b, 0x3d, 0xa0, 0x88, 0xf0, 0xbd,
  0x10, 0x0e, 0xe0, 0x3d, 0x58, 0x50, 0xb1, 0xbe, 0xe2, 0xbf, 0x0a, 0xbe,
  0x90, 0x70, 0x65, 0xbd, 0xdd, 0xea, 0x21, 0x3e, 0xab, 0x15, 0x8a, 0xbd,
  0x26, 0x91, 0xd3, 0x3d, 0xb7, 0x61, 0xd3, 0x3b, 0x39, 0xe4, 0x8e, 0xbd,
  0x27, 0x9f, 0xe7, 0xbc, 0xc7, 0xa1, 0x05, 0xbe, 0x71, 0x49, 0xac, 0x3d,
  0x81, 0xd1, 0x57, 0x3e, 0x2b, 0xe4, 0x8d, 0xbe, 0x24, 0x1c, 0x2d, 0x3c,
  0xe9, 0xe3, 0x58, 0x3e, 0x82, 0x94, 0x0e, 0xbe, 0x01, 0x20, 0x33, 0x3e,
  0xb0, 0x91, 0xc4, 0x3c, 0x5d, 0xe4, 0x27, 0xbd, 0x06, 0x72, 0x08, 0x3d,
  0x6e, 0xf6, 0xd4, 0xbd, 0x53, 0x18, 0x83, 0xbe, 0x13, 0x0f, 0xd3, 0xbc,
  0xb5, 0x5b, 0xea, 0xbd, 0x79, 0xf5, 0xa3, 0xbd, 0xd9, 0x3f, 0xa7, 0xbd,
  0xaf, 0x8c, 0x2b, 0xbe, 0x2c, 0xb4, 0xc1, 0xbd, 0x50, 0x98, 0x82, 0xbe,
  0xfe, 0x6f, 0x15, 0xbe, 0xe8, 0xc8, 0xbf, 0x3d, 0x57, 0x84, 0xfc, 0x3d,
  0x09, 0x39, 0x43, 0xbe, 0xb3, 0x68, 0xc3, 0x3d, 0xf6, 0xd7, 0x4c, 0xbd,
  0x72, 0x2c, 0x3a, 0x3e, 0x11, 0x27, 0x44, 0x3e, 0x52, 0x1e, 0x1d, 0xbd,
  0xeb, 0x63, 0x18, 0x3e, 0x92, 0x50, 0x6c, 0x3e, 0x12, 0x60, 0xac, 0x3e,
  0x19, 0xa2, 0x4a, 0x3e, 0x9d, 0xcc, 0xa8, 0x3d, 0xbf, 0xca, 0x70, 0x3e,
  0x98, 0xeb, 0x84, 0x3e, 0x5e, 0x34, 0x6f, 0x3d, 0x3d, 0x3a, 0x11, 0xbe,
  0x53, 0x2e, 0xeb, 0xbd, 0xca, 0x40, 0x01, 0x3e, 0x28, 0x7e, 0xc4, 0x3d,
  0xa5, 0x84, 0x11, 0xbe, 0xa2, 0x53, 0x8b, 0xbd, 0x80, 0x92, 0xf0, 0x3d,
  0x2d, 0xac, 0x22, 0x3e, 0x50, 0x5e, 0xea, 0xbd, 0xf1, 0xf5, 0xde, 0xbd,
  0x36, 0x43, 0x42, 0xbd, 0xe5, 0x6d, 0x8d, 0xbc, 0x16, 0x6c, 0xf7, 0xbc,
  0x95, 0xd3, 0x53, 0xbd, 0x7f, 0x2b, 0xad, 0x3e, 0x2a, 0x73, 0x74, 0xbe,
  0xc8, 0xb7, 0x38, 0x3c, 0x00, 0x3b, 0x0a, 0xbe, 0x88, 0x22, 0x06, 0x3c,
  0x04, 0xc5, 0xa5, 0x3c, 0xea, 0xbf, 0x8e, 0x3c, 0x3a, 0x6b, 0x4b, 0x3e,
  0x38, 0xf6, 0x04, 0xbd, 0xdb, 0xc6, 0x93, 0x3e, 0x48, 0x05, 0xa3, 0x3d,
  0x97, 0x05, 0x0c, 0x3e, 0x7a, 0x9d, 0xab, 0xbd, 0x2d, 0x43, 0xbf, 0xbd,
  0xc4, 0x02, 0xa4, 0xbd, 0x66, 0xd3, 0xe6, 0x3d, 0x2f, 0x20, 0x4d, 0xbe,
  0x0e, 0x5f, 0x0c, 0xbe, 0x76, 0x16, 0xcf, 0xbd, 0xd4, 0x0d, 0x5f, 0x3d,
  0xa6, 0xe8, 0x52, 0xbb, 0xef, 0xd4, 0x84, 0x3c, 0x1f, 0x30, 0x11, 0xbe,
  0xec, 0xdb, 0x0a, 0x3d, 0xd4, 0xbb, 0x64, 0x3d, 0x7e, 0x06, 0x02, 0x3e,
  0x00, 0xb0, 0x3d, 0xbe, 0x8e, 0x90, 0x98, 0xbd, 0x7f, 0x87, 0x24, 0x3e,
  0x4a, 0xac, 0x33, 0xbe, 0x31, 0x9e, 0x4b, 0xbe, 0x3f, 0x0a, 0xbb, 0x3d,
  0x0c, 0x06, 0xcf, 0x3d, 0xd9, 0x02, 0x34, 0x3e, 0x8c, 0xa0, 0x5f, 0x3d,
  0x66, 0xe7, 0x4e, 0xbe, 0x1d, 0x7f, 0xc0, 0x3d, 0x54, 0x2c, 0x43, 0x3e,
  0xf1, 0x2c, 0x02, 0x3e, 0x63, 0xc3, 0x21, 0xbe, 0xc6, 0x5f, 0x3f, 0x3c,
  0x13, 0x85, 0xb2, 0x3d, 0x82, 0x11, 0x45, 0xbe, 0xdb, 0x74, 0x1b, 0x3e,
  0x3f, 0xa6, 0x90, 0xbe, 0x9f, 0xe9, 0x6e, 0x3d, 0x90, 0x35, 0x37, 0xbe,
  0x28, 0x5e, 0x37, 0xbe, 0xc7, 0xc4, 0x83, 0x3d, 0x43, 0xff, 0x0d, 0x3e,
  0xfa, 0x11, 0x7a, 0xbd, 0xa5, 0x90, 0xbf, 0x3d, 0x8b, 0x6e, 0x02, 0xbe,
  0x40, 0xe7, 0xd8, 0x3d, 0x44, 0x9d, 0x5d, 0xbe, 0xbd, 0xe7, 0xad, 0x3d,
  0x60, 0x2f, 0x29, 0xbd, 0x2d, 0xa7, 0x8f, 0xbd, 0x29, 0x43, 0xd7, 0x3c,
  0x41, 0x54, 0x90, 0xbe, 0x74, 0x3b, 0x14, 0xbe, 0x56, 0x25, 0x18, 0xbe,
  0xea, 0x6b, 0x74, 0xbe, 0x34, 0xa2, 0x28, 0xbe, 0xb6, 0x0c, 0x1f, 0x3e,
  0x1c, 0xe1, 0xec, 0xbb, 0xdc, 0x0c, 0xa6, 0xbd, 0xa8, 0xd8, 0x45, 0xbd,
  0xc7, 0x5b, 0xe9, 0x3d, 0xa5, 0x90, 0x5d, 0x3d, 0x2d, 0x68, 0xb3, 0xbd,
  0x72, 0xc9, 0xab, 0xbd, 0x81, 0x6a, 0x54, 0x3e, 0x42, 0xb4, 0x03, 0xbe,
  0x97, 0x52, 0x2f, 0xbe, 0x1a, 0x1b, 0xf8, 0x3d, 0x83, 0xc9, 0x65, 0xbc,
  0x89, 0x61, 0x0d, 0xbe, 0xb7, 0x19, 0x16, 0xbd, 0x82, 0xb0, 0x74, 0x3d,
  0x6a, 0xf7, 0x2b, 0x3e, 0x2f, 0xaf, 0xb3, 0xbd, 0x13, 0x06, 0x19, 0x3d,
  0x96, 0x03, 0x41, 0xbe, 0x4d, 0x01, 0xb2, 0x3e, 0x83, 0xed, 0x30, 0x3e,
  0x0e, 0x69, 0x65, 0xbd, 0x3b, 0x87, 0x4e, 0xbc, 0xd6, 0x6f, 0x36, 0x3e,
  0xdf, 0x71, 0xe6, 0x3c, 0x40, 0xdc, 0xa5, 0x3d, 0x13, 0x89, 0xf7, 0xbd,
  0x5d, 0x6c, 0xe1, 0xbb, 0x88, 0xe6, 0x91, 0xbe, 0x65, 0x2d, 0x2a, 0xbe,
  0xf0, 0xd1, 0x30, 0xbe, 0x57, 0x99, 0xc8, 0x3c, 0xc5, 0xdc, 0x9c, 0xbd,
  0x28, 0xdc, 0x82, 0xbe, 0x63, 0xa8, 0x51, 0x3c, 0x38, 0xc9, 0x54, 0xbc,
  0xb5, 0xbd, 0x1c, 0x3e, 0xba, 0x69, 0x80, 0x3d, 0xd6, 0xe7, 0xcc, 0xbd,
  0x14, 0x0f, 0xc9, 0x3d, 0xf2, 0x46, 0x69, 0xbc, 0xe0, 0x50, 0x73, 0xbe,
  0x0a, 0x37, 0x69, 0xbd, 0x88, 0x0b, 0x90, 0xbe, 0x3f, 0xca, 0x4d, 0x3d,
  0xaa, 0x15, 0x6f, 0xbe, 0xe5, 0x21, 0x82, 0xbe, 0x3e, 0xe0, 0xd2, 0x3c,
  0xb3, 0x24, 0x31, 0x3d, 0x9b, 0x4f, 0xa8, 0x3d, 0xc1, 0x65, 0x69, 0x3b,
  0x68, 0x44, 0xe7, 0x3d, 0x86, 0x1a, 0x67, 0xbe, 0xc4, 0xc1, 0x8e, 0x3a,
  0xfb, 0x15, 0xb9, 0xbd, 0xda, 0xb7, 0x42, 0xbe, 0xee, 0x0d, 0x17, 0x3e,
  0xe5, 0x2b, 0x67, 0xbe, 0xeb, 0xe9, 0xff, 0xbb, 0xbd, 0xae, 0x8b, 0xbe,
  0xd2, 0x0d, 0x08, 0xbe, 0x0d, 0xbd, 0x68, 0xbd, 0xa8, 0x8a, 0x1f, 0xbe,
  0x9a, 0xa7, 0x98, 0x3e, 0x35, 0x3c, 0xa2, 0x3e, 0x9b, 0xb1, 0xf3, 0xbb,
  0x48, 0x67, 0x3a, 0x3e, 0xd0, 0x0a, 0x23, 0xbc, 0xa4, 0xd5, 0x75, 0x3d,
  0x36, 0x1d, 0x03, 0xbe, 0x0c, 0x85, 0xa0, 0xbd, 0xc5, 0x5d, 0xba, 0x3c,
  0xbd, 0xd7, 0x26, 0x3e, 0xb3, 0x8d, 0xfb, 0x3d, 0xbe, 0x89, 0x80, 0xbc,
  0xcf, 0xe1, 0x21, 0xbe, 0xa6, 0x3b, 0x8c, 0xbd, 0xcb, 0x7b, 0x42, 0x3d,
  0x2e, 0x7c, 0xed, 0xbd, 0xa6, 0x6a, 0x86, 0x3e, 0x03, 0xdc, 0x82, 0x3d,
  0xcd, 0x6a, 0x00, 0xbe, 0x86, 0xf4, 0x28, 0x3e, 0x68, 0x9b, 0x4e, 0x3e,
  0x89, 0xaf, 0x1a, 0x3c, 0x12, 0x7a, 0x32, 0xbe, 0xc5, 0x34, 0xf6, 0xbc,
  0xc2, 0x5c, 0x5d, 0xbe, 0x95, 0x62, 0x2a, 0x3d, 0x2f, 0x67, 0xe1, 0x3b,
  0xf5, 0x33, 0x19, 0x3e, 0x15, 0x4d, 0x19, 0xbe, 0x62, 0xe0, 0xa9, 0xbc,
  0x2d, 0x4e, 0xdb, 0x3d, 0xf5, 0xc4, 0xb9, 0x3d, 0x05, 0x3a, 0xea, 0x3d,
  0xd7, 0xea, 0xa6, 0xbd, 0x59, 0xab, 0x2a, 0xbe, 0xf6, 0x5d, 0xb8, 0xbb,
  0xa3, 0x90, 0x08, 0xbe, 0x6f, 0xa7, 0xad, 0xbd, 0x37, 0x5c, 0x5d, 0xbe,
  0xc6, 0x32, 0xef, 0xbd, 0x04, 0x2c, 0x0e, 0x3e, 0x9e, 0xb4, 0x1e, 0xbe,
  0x1b, 0xc9, 0xc3, 0x3d, 0xbc, 0xd9, 0x1f, 0x3e, 0x98, 0x5c, 0x41, 0x3e,
  0xd7, 0xfd, 0x0e, 0x3e, 0x86, 0x0e, 0xda, 0xbd, 0x0f, 0x82, 0x2c, 0xbe,
  0x6e, 0x6f, 0xff, 0x3c, 0x30, 0x26, 0x3d, 0x3e, 0x5e, 0xab, 0xdf, 0xbc,
  0x8e, 0x54, 0xe0, 0xbd, 0x1b, 0xb0, 0x73, 0xbe, 0x32, 0xf4, 0xd1, 0xbd,
  0x24, 0x6e, 0x34, 0xbc, 0x32, 0x9a, 0x92, 0xbc, 0x2e, 0x46, 0x6b, 0x3d,
  0x0c, 0xd8, 0x1b, 0x3d, 0x8a, 0xde, 0x17, 0x3e, 0xd3, 0xab, 0xce, 0xbd,
  0xb4, 0x82, 0xbd, 0xbd, 0xfa, 0x99, 0xb0, 0xbd, 0x0e, 0xe0, 0xf0, 0xbd,
  0x56, 0x6d, 0x71, 0x3c, 0x35, 0xfc, 0x5e, 0xbe, 0x5e, 0xc2, 0x55, 0x3e,
  0x99, 0x7c, 0x04, 0x3e, 0xd9, 0x12, 0xcd, 0xbc, 0xdd, 0x93, 0xfa, 0x3d,
  0xf4, 0xa6, 0x08, 0xbe, 0x8c, 0xf6, 0x16, 0x3d, 0xf3, 0x43, 0x7c, 0xbe,
  0xb8, 0x7b, 0x8b, 0xbd, 0x7f, 0xeb, 0xf1, 0xbc, 0x20, 0x64, 0x32, 0x3c,
  0x68, 0x0d, 0x22, 0xbe, 0x86, 0x5c, 0xe4, 0xbd, 0x8f, 0x93, 0x98, 0xbd,
  0x5c, 0x64, 0xa9, 0x3d, 0x32, 0x6a, 0x2a, 0xbd, 0xcb, 0x8b, 0x62, 0xbd,
  0xa2, 0x68, 0x67, 0x3e, 0x11, 0x4a, 0xdb, 0x3c, 0x83, 0xfe, 0x0b, 0xbe,
  0xf2, 0x94, 0x8c, 0x3e, 0x41, 0xb5, 0x8b, 0x3e, 0xe8, 0x44, 0x3e, 0x3d,
  0x2d, 0x34, 0xdd, 0xbd, 0x63, 0xe2, 0x18, 0x3d, 0x27, 0xa2, 0x5a, 0x3e,
  0x91, 0xf6, 0x29, 0xbe, 0x5b, 0xcb, 0x08, 0xbe, 0xd6, 0xeb, 0x35, 0xbe,
  0x82, 0xb1, 0xb6, 0xbd, 0x57, 0x1c, 0xae, 0xbd, 0x70, 0x4e, 0x44, 0xbe,
  0xcd, 0x40, 0x91, 0xbd, 0x44, 0x1c, 0xb7, 0xbd, 0x59, 0x45, 0x05, 0xbe,
  0x2d, 0xfe, 0x8e, 0xbd, 0x45, 0xaa, 0x17, 0x3d, 0x1c, 0x75, 0x49, 0x3e,
  0xb0, 0xc5, 0x4b, 0xbe, 0x42, 0xf9, 0x03, 0xbe, 0x98, 0x64, 0x05, 0x3e,
  0x74, 0xba, 0xa1, 0x3e, 0xeb, 0x00, 0x1f, 0xbe, 0xff, 0x74, 0x9e, 0xbc,
  0x6c, 0xc6, 0x5c, 0xbd, 0x04, 0xee, 0x1f, 0xbd, 0xdf, 0x91, 0xd2, 0xbd,
  0x41, 0x8e, 0xbd, 0xbd, 0x04, 0xfd, 0x64, 0x3e, 0x11, 0x35, 0x14, 0xbe,
  0x09, 0x57, 0x98, 0x3d, 0xd3, 0x2c, 0x5d, 0xbe, 0xe9, 0x2c, 0xb1, 0xbd,
  0xd8, 0xf4, 0x6f, 0x3e, 0x80, 0x60, 0xa4, 0xbd, 0x67, 0xe1, 0x22, 0x3d,
  0x6f, 0x1f, 0x88, 0x3d, 0x3e, 0x18, 0xde, 0xbd, 0xd9, 0x62, 0x23, 0xbd,
  0x50, 0x34, 0x88, 0x3d, 0xe6, 0x87, 0xb7, 0x3c, 0x90, 0xcb, 0x3c, 0xbe,
  0xed, 0x0b, 0x68, 0xbe, 0x2f, 0x48, 0x8d, 0xbe, 0xb5, 0x4a, 0x06, 0x3e,
  0xa0, 0xdf, 0x0c, 0xbd, 0xa4, 0xb7, 0x83, 0xbd, 0x12, 0xa6, 0x3c, 0xbc,
  0x06, 0x16, 0x71, 0x3e, 0x52, 0xe2, 0x84, 0xbe, 0x8b, 0xd7, 0x3b, 0xbe,
  0xf7, 0x59, 0xfe, 0xbc, 0xe3, 0xec, 0x6a, 0xbe, 0xe7, 0xe5, 0xb1, 0x3e,
  0x7a, 0x76, 0x66, 0xbc, 0xf8, 0x5d, 0x21, 0xbe, 0x03, 0x2d, 0x0b, 0x3d,
  0xfe, 0x21, 0xb9, 0x3d, 0xe0, 0xf8, 0xff, 0xff, 0xe4, 0xf8, 0xff, 0xff,
  0xe8, 0xf8, 0xff, 0xff, 0xec, 0xf8, 0xff, 0xff, 0xd2, 0xff, 0xff, 0xff,
  0x04, 0x00, 0x00, 0x00, 0x14, 0x00, 0x00, 0x00, 0x8d, 0x1a, 0x35, 0xbf,
  0x41, 0x85, 0x53, 0xbd, 0x00, 0x00, 0x00, 0x00, 0x81, 0x86, 0xd0, 0xbb,
  0x00, 0x00, 0x00, 0x00, 0x10, 0xf9, 0xff, 0xff, 0x14, 0xf9, 0xff, 0xff,
  0x84, 0xfa, 0xff, 0xff, 0x00, 0x00, 0x06, 0x00, 0x08, 0x00, 0x04, 0x00,
  0x06, 0x00, 0x00, 0x00, 0x04, 0x00, 0x00, 0x00, 0x14, 0x00, 0x00, 0x00,
  0x52, 0xb1, 0x87, 0xbd, 0xff, 0xa2, 0x84, 0xbc, 0xe1, 0x0f, 0xf8, 0xbd,
  0xbc, 0x07, 0x5b, 0xbd, 0x6f, 0xf2, 0x51, 0x3d, 0x44, 0xf9, 0xff, 0xff,
  0x48, 0xf9, 0xff, 0xff, 0x0c, 0x00, 0x14, 0x00, 0x04, 0x00, 0x08, 0x00,
  0x0c, 0x00, 0x10, 0x00, 0x0c, 0x00, 0x00, 0x00, 0x20, 0x00, 0x00, 0x00,
  0x14, 0x00, 0x00, 0x00, 0x08, 0x00, 0x00, 0x00, 0xa4, 0x05, 0x00, 0x00,
  0x01, 0x00, 0x00, 0x00, 0x14, 0x00, 0x00, 0x00, 0x01, 0x00, 0x00, 0x00,
  0x06, 0x00, 0x00, 0x00, 0x15, 0x00, 0x00, 0x00, 0xac, 0x03, 0x00, 0x00,
  0xbc, 0x01, 0x00, 0x00, 0xf0, 0x01, 0x00, 0x00, 0x14, 0x03, 0x00, 0x00,
  0x34, 0x01, 0x00, 0x00, 0x6c, 0x01, 0x00, 0x00, 0x14, 0x05, 0x00, 0x00,
  0xcc, 0x02, 0x00, 0x00, 0x34, 0x00, 0x00, 0x00, 0x84, 0x02, 0x00, 0x00,
  0x10, 0x02, 0x00, 0x00, 0x60, 0x00, 0x00, 0x00, 0x94, 0x00, 0x00, 0x00,
  0x30, 0x03, 0x00, 0x00, 0x60, 0x04, 0x00, 0x00, 0xcc, 0x00, 0x00, 0x00,
  0x1c, 0x04, 0x00, 0x00, 0x9c, 0x04, 0x00, 0x00, 0x28, 0x02, 0x00, 0x00,
  0xa0, 0x03, 0x00, 0x00, 0xd4, 0x03, 0x00, 0x00, 0x36, 0xfb, 0xff, 0xff,
  0x10, 0x00, 0x00, 0x00, 0x15, 0x00, 0x00, 0x00, 0x10, 0x00, 0x00, 0x00,
  0x24, 0x00, 0x00, 0x00, 0x01, 0x00, 0x00, 0x00, 0x05, 0x00, 0x00, 0x00,
  0x11, 0x00, 0x00, 0x00, 0x64, 0x65, 0x6e, 0x73, 0x65, 0x2f, 0x4d, 0x61,
  0x74, 0x4d, 0x75, 0x6c, 0x5f, 0x62, 0x69, 0x61, 0x73, 0x00, 0x00, 0x00,
  0x08, 0xfa, 0xff, 0xff, 0x6e, 0xfb, 0xff, 0xff, 0x10, 0x00, 0x00, 0x00,
  0x14, 0x00, 0x00, 0x00, 0x10, 0x00, 0x00, 0x00, 0x24, 0x00, 0x00, 0x00,
  0x01, 0x00, 0x00, 0x00, 0x05, 0x00, 0x00, 0x00, 0x13, 0x00, 0x00, 0x00,
  0x64, 0x65, 0x6e, 0x73, 0x65, 0x5f, 0x31, 0x2f, 0x4d, 0x61, 0x74, 0x4d,
  0x75, 0x6c, 0x5f, 0x62, 0x69, 0x61, 0x73, 0x00, 0x40, 0xfa, 0xff, 0xff,
  0xa6, 0xfb, 0xff, 0xff, 0x10, 0x00, 0x00, 0x00, 0x13, 0x00, 0x00, 0x00,
  0x14, 0x00, 0x00, 0x00, 0x30, 0x00, 0x00, 0x00, 0x02, 0x00, 0x00, 0x00,
  0x05, 0x00, 0x00, 0x00, 0x05, 0x00, 0x00, 0x00, 0x18, 0x00, 0x00, 0x00,
  0x64, 0x65, 0x6e, 0x73, 0x65, 0x5f, 0x31, 0x2f, 0x6b, 0x65, 0x72, 0x6e,
  0x65, 0x6c, 0x2f, 0x74, 0x72, 0x61, 0x6e, 0x73, 0x70, 0x6f, 0x73, 0x65,
  0x00, 0x00, 0x00, 0x00, 0x84, 0xfa, 0xff, 0xff, 0xea, 0xfb, 0xff, 0xff,
  0x10, 0x00, 0x00, 0x00, 0x12, 0x00, 0x00, 0x00, 0x18, 0x00, 0x00, 0x00,
  0x28, 0x00, 0x00, 0x00, 0x03, 0x00, 0x00, 0x00, 0x0d, 0x00, 0x00, 0x00,
  0x0d, 0x00, 0x00, 0x00, 0x04, 0x00, 0x00, 0x00, 0x0f, 0x00, 0x00, 0x00,
  0x70, 0x5f, 0x72, 0x65, 0x5f, 0x6c, 0x75, 0x2f, 0x4e, 0x65, 0x67, 0x5f,
  0x6e, 0x65, 0x67, 0x00, 0xc0, 0xfa, 0xff, 0xff, 0x26, 0xfc, 0xff, 0xff,
  0x10, 0x00, 0x00, 0x00, 0x11, 0x00, 0x00, 0x00, 0x10, 0x00, 0x00, 0x00,
  0x28, 0x00, 0x00, 0x00, 0x01, 0x00, 0x00, 0x00, 0x04, 0x00, 0x00, 0x00,
  0x14, 0x00, 0x00, 0x00, 0x63, 0x6f, 0x6e, 0x76, 0x32, 0x64, 0x5f, 0x31,
  0x2f, 0x43, 0x6f, 0x6e, 0x76, 0x32, 0x44, 0x5f, 0x62, 0x69, 0x61, 0x73,
  0x00, 0x00, 0x00, 0x00, 0xfc, 0xfa, 0xff, 0xff, 0x62, 0xfc, 0xff, 0xff,
  0x10, 0x00, 0x00, 0x00, 0x10, 0x00, 0x00, 0x00, 0x1c, 0x00, 0x00, 0x00,
  0x2c, 0x00, 0x00, 0x00, 0x04, 0x00, 0x00, 0x00, 0x04, 0x00, 0x00, 0x00,
  0x03, 0x00, 0x00, 0x00, 0x03, 0x00, 0x00, 0x00, 0x04, 0x00, 0x00, 0x00,
  0x0f, 0x00, 0x00, 0x00, 0x63, 0x6f, 0x6e, 0x76, 0x32, 0x64, 0x5f, 0x31,
  0x2f, 0x6b, 0x65, 0x72, 0x6e, 0x65, 0x6c, 0x00, 0x3c, 0xfb, 0xff, 0xff,
  0xa2, 0xfc, 0xff, 0xff, 0x10, 0x00, 0x00, 0x00, 0x0f, 0x00, 0x00, 0x00,
  0x10, 0x00, 0x00, 0x00, 0x24, 0x00, 0x00, 0x00, 0x01, 0x00, 0x00, 0x00,
  0x04, 0x00, 0x00, 0x00, 0x12, 0x00, 0x00, 0x00, 0x63, 0x6f, 0x6e, 0x76,
  0x32, 0x64, 0x2f, 0x43, 0x6f, 0x6e, 0x76, 0x32, 0x44, 0x5f, 0x62, 0x69,
  0x61, 0x73, 0x00, 0x00, 0x74, 0xfb, 0xff, 0xff, 0xda, 0xfc, 0xff, 0xff,
  0x10, 0x00, 0x00, 0x00, 0x0e, 0x00, 0x00, 0x00, 0x1c, 0x00, 0x00, 0x00,
  0x2c, 0x00, 0x00, 0x00, 0x04, 0x00, 0x00, 0x00, 0x01, 0x00, 0x00, 0x00,
  0x03, 0x00, 0x00, 0x00, 0x03, 0x00, 0x00, 0x00, 0x04, 0x00, 0x00, 0x00,
  0x0d, 0x00, 0x00, 0x00, 0x63, 0x6f, 0x6e, 0x76, 0x32, 0x64, 0x2f, 0x6b,
  0x65, 0x72, 0x6e, 0x65, 0x6c, 0x00, 0x00, 0x00, 0xb4, 0xfb, 0xff, 0xff,
  0x1a, 0xfd, 0xff, 0xff, 0x10, 0x00, 0x00, 0x00, 0x0d, 0x00, 0x00, 0x00,
  0x14, 0x00, 0x00, 0x00, 0x24, 0x00, 0x00, 0x00, 0x02, 0x00, 0x00, 0x00,
  0x01, 0x00, 0x00, 0x00, 0x05, 0x00, 0x00, 0x00, 0x0f, 0x00, 0x00, 0x00,
  0x64, 0x65, 0x6e, 0x73, 0x65, 0x5f, 0x31, 0x2f, 0x42, 0x69, 0x61, 0x73,
  0x41, 0x64, 0x64, 0x00, 0xec, 0xfb, 0xff, 0xff, 0x52, 0xfd, 0xff, 0xff,
  0x10, 0x00, 0x00, 0x00, 0x0c, 0x00, 0x00, 0x00, 0x14, 0x00, 0x00, 0x00,
  0x24, 0x00, 0x00, 0x00, 0x02, 0x00, 0x00, 0x00, 0x01, 0x00, 0x00, 0x00,
  0x05, 0x00, 0x00, 0x00, 0x0d, 0x00, 0x00, 0x00, 0x70, 0x5f, 0x72, 0x65,
  0x5f, 0x6c, 0x75, 0x5f, 0x31, 0x2f, 0x61, 0x64, 0x64, 0x00, 0x00, 0x00,
  0x24, 0xfc, 0xff, 0xff, 0x8a, 0xfd, 0xff, 0xff, 0x10, 0x00, 0x00, 0x00,
  0x0b, 0x00, 0x00, 0x00, 0x14, 0x00, 0x00, 0x00, 0x2c, 0x00, 0x00, 0x00,
  0x02, 0x00, 0x00, 0x00, 0x05, 0x00, 0x00, 0x00, 0x90, 0x00, 0x00, 0x00,
  0x16, 0x00, 0x00, 0x00, 0x64, 0x65, 0x6e, 0x73, 0x65, 0x2f, 0x6b, 0x65,
  0x72, 0x6e, 0x65, 0x6c, 0x2f, 0x74, 0x72, 0x61, 0x6e, 0x73, 0x70, 0x6f,
  0x73, 0x65, 0x00, 0x00, 0x64, 0xfc, 0xff, 0xff, 0xca, 0xfd, 0xff, 0xff,
  0x10, 0x00, 0x00, 0x00, 0x0a, 0x00, 0x00, 0x00, 0x14, 0x00, 0x00, 0x00,
  0x24, 0x00, 0x00, 0x00, 0x02, 0x00, 0x00, 0x00, 0x01, 0x00, 0x00, 0x00,
  0x05, 0x00, 0x00, 0x00, 0x0d, 0x00, 0x00, 0x00, 0x64, 0x65, 0x6e, 0x73,
  0x65, 0x2f, 0x42, 0x69, 0x61, 0x73, 0x41, 0x64, 0x64, 0x00, 0x00, 0x00,
  0x9c, 0xfc, 0xff, 0xff, 0x02, 0xfe, 0xff, 0xff, 0x10, 0x00, 0x00, 0x00,
  0x09, 0x00, 0x00, 0x00, 0x1c, 0x00, 0x00, 0x00, 0x30, 0x00, 0x00, 0x00,
  0x04, 0x00, 0x00, 0x00, 0x01, 0x00, 0x00, 0x00, 0x0d, 0x00, 0x00, 0x00,
  0x0d, 0x00, 0x00, 0x00, 0x04, 0x00, 0x00, 0x00, 0x10, 0x00, 0x00, 0x00,
  0x63, 0x6f, 0x6e, 0x76, 0x32, 0x64, 0x5f, 0x31, 0x2f, 0x42, 0x69, 0x61,
  0x73, 0x41, 0x64, 0x64, 0x00, 0x00, 0x00, 0x00, 0xe0, 0xfc, 0xff, 0xff,
  0x46, 0xfe, 0xff, 0xff, 0x10, 0x00, 0x00, 0x00, 0x08, 0x00, 0x00, 0x00,
  0x1c, 0x00, 0x00, 0x00, 0x34, 0x00, 0x00, 0x00, 0x04, 0x00, 0x00, 0x00,
  0x01, 0x00, 0x00, 0x00, 0x0f, 0x00, 0x00, 0x00, 0x0f, 0x00, 0x00, 0x00,
  0x04, 0x00, 0x00, 0x00, 0x15, 0x00, 0x00, 0x00, 0x6d, 0x61, 0x78, 0x5f,
  0x70, 0x6f, 0x6f, 0x6c, 0x69, 0x6e, 0x67, 0x32, 0x64, 0x2f, 0x4d, 0x61,
  0x78, 0x50, 0x6f, 0x6f, 0x6c, 0x00, 0x00, 0x00, 0x28, 0xfd, 0xff, 0xff,
  0x8e, 0xfe, 0xff, 0xff, 0x10, 0x00, 0x00, 0x00, 0x07, 0x00, 0x00, 0x00,
  0x1c, 0x00, 0x00, 0x00, 0x2c, 0x00, 0x00, 0x00, 0x04, 0x00, 0x00, 0x00,
  0x01, 0x00, 0x00, 0x00, 0x1e, 0x00, 0x00, 0x00, 0x1e, 0x00, 0x00, 0x00,
  0x04, 0x00, 0x00, 0x00, 0x0e, 0x00, 0x00, 0x00, 0x63, 0x6f, 0x6e, 0x76,
  0x32, 0x64, 0x2f, 0x42, 0x69, 0x61, 0x73, 0x41, 0x64, 0x64, 0x00, 0x00,
  0x68, 0xfd, 0xff, 0xff, 0xce, 0xfe, 0xff, 0xff, 0x10, 0x00, 0x00, 0x00,
  0x06, 0x00, 0x00, 0x00, 0x10, 0x00, 0x00, 0x00, 0x24, 0x00, 0x00, 0x00,
  0x01, 0x00, 0x00, 0x00, 0x05, 0x00, 0x00, 0x00, 0x11, 0x00, 0x00, 0x00,
  0x70, 0x5f, 0x72, 0x65, 0x5f, 0x6c, 0x75, 0x5f, 0x32, 0x2f, 0x4e, 0x65,
  0x67, 0x5f, 0x6e, 0x65, 0x67, 0x00, 0x00, 0x00, 0xa0, 0xfd, 0xff, 0xff,
  0x06, 0xff, 0xff, 0xff, 0x10, 0x00, 0x00, 0x00, 0x05, 0x00, 0x00, 0x00,
  0x14, 0x00, 0x00, 0x00, 0x24, 0x00, 0x00, 0x00, 0x02, 0x00, 0x00, 0x00,
  0x01, 0x00, 0x00, 0x00, 0x05, 0x00, 0x00, 0x00, 0x0d, 0x00, 0x00, 0x00,
  0x70, 0x5f, 0x72, 0x65, 0x5f, 0x6c, 0x75, 0x5f, 0x32, 0x2f, 0x61, 0x64,
  0x64, 0x00, 0x00, 0x00, 0xd8, 0xfd, 0xff, 0xff, 0x3e, 0xff, 0xff, 0xff,
  0x10, 0x00, 0x00, 0x00, 0x04, 0x00, 0x00, 0x00, 0x1c, 0x00, 0x00, 0x00,
  0x28, 0x00, 0x00, 0x00, 0x04, 0x00, 0x00, 0x00, 0x01, 0x00, 0x00, 0x00,
  0x0d, 0x00, 0x00, 0x00, 0x0d, 0x00, 0x00, 0x00, 0x04, 0x00, 0x00, 0x00,
  0x0b, 0x00, 0x00, 0x00, 0x70, 0x5f, 0x72, 0x65, 0x5f, 0x6c, 0x75, 0x2f,
  0x61, 0x64, 0x64, 0x00, 0x14, 0xfe, 0xff, 0xff, 0x7a, 0xff, 0xff, 0xff,
  0x10, 0x00, 0x00, 0x00, 0x03, 0x00, 0x00, 0x00, 0x1c, 0x00, 0x00, 0x00,
  0x34, 0x00, 0x00, 0x00, 0x04, 0x00, 0x00, 0x00, 0x01, 0x00, 0x00, 0x00,
  0x06, 0x00, 0x00, 0x00, 0x06, 0x00, 0x00, 0x00, 0x04, 0x00, 0x00, 0x00,
  0x17, 0x00, 0x00, 0x00, 0x6d, 0x61, 0x78, 0x5f, 0x70, 0x6f, 0x6f, 0x6c,
  0x69, 0x6e, 0x67, 0x32, 0x64, 0x5f, 0x31, 0x2f, 0x4d, 0x61, 0x78, 0x50,
  0x6f, 0x6f, 0x6c, 0x00, 0x5c, 0xfe, 0xff, 0xff, 0xc2, 0xff, 0xff, 0xff,
  0x10, 0x00, 0x00, 0x00, 0x02, 0x00, 0x00, 0x00, 0x10, 0x00, 0x00, 0x00,
  0x28, 0x00, 0x00, 0x00, 0x01, 0x00, 0x00, 0x00, 0x05, 0x00, 0x00, 0x00,
  0x11, 0x00, 0x00, 0x00, 0x70, 0x5f, 0x72, 0x65, 0x5f, 0x6c, 0x75, 0x5f,
  0x31, 0x2f, 0x4e, 0x65, 0x67, 0x5f, 0x6e, 0x65, 0x67, 0x00, 0x00, 0x00,
  0x04, 0x00, 0x06, 0x00, 0x04, 0x00, 0x00, 0x00, 0x00, 0x00, 0x0e, 0x00,
  0x14, 0x00, 0x04, 0x00, 0x00, 0x00, 0x08, 0x00, 0x0c, 0x00, 0x10, 0x00,
  0x0e, 0x00, 0x00, 0x00, 0x10, 0x00, 0x00, 0x00, 0x01, 0x00, 0x00, 0x00,
  0x1c, 0x00, 0x00, 0x00, 0x34, 0x00, 0x00, 0x00, 0x04, 0x00, 0x00, 0x00,
  0x01, 0x00, 0x00, 0x00, 0x20, 0x00, 0x00, 0x00, 0x20, 0x00, 0x00, 0x00,
  0x01, 0x00, 0x00, 0x00, 0x0c, 0x00, 0x00, 0x00, 0x63, 0x6f, 0x6e, 0x76,
  0x32, 0x64, 0x5f, 0x69, 0x6e, 0x70, 0x75, 0x74, 0x00, 0x00, 0x00, 0x00,
  0x08, 0x00, 0x0c, 0x00, 0x04, 0x00, 0x08, 0x00, 0x08, 0x00, 0x00, 0x00,
  0x10, 0x00, 0x00, 0x00, 0x04, 0x00, 0x00, 0x00, 0x01, 0x00, 0x00, 0x00,
  0x00, 0x00, 0x7f, 0x43, 0x01, 0x00, 0x00, 0x00, 0x00, 0x00, 0x00, 0x00,
  0x09, 0x00, 0x00, 0x00, 0x50, 0x02, 0x00, 0x00, 0xe0, 0x01, 0x00, 0x00,
  0x8c, 0x01, 0x00, 0x00, 0x48, 0x01, 0x00, 0x00, 0xe8, 0x00, 0x00, 0x00,
  0xa4, 0x00, 0x00, 0x00, 0x74, 0x00, 0x00, 0x00, 0x34, 0x00, 0x00, 0x00,
  0x04, 0x00, 0x00, 0x00, 0xe4, 0xfe, 0xff, 0xff, 0x04, 0x00, 0x00, 0x00,
  0x10, 0x00, 0x00, 0x00, 0x18, 0x00, 0x00, 0x00, 0x04, 0x00, 0x00, 0x00,
  0x00, 0x00, 0x00, 0x00, 0x02, 0x00, 0x00, 0x00, 0x0a, 0x00, 0x00, 0x00,
  0x13, 0x00, 0x00, 0x00, 0x01, 0x00, 0x00, 0x00, 0x14, 0x00, 0x00, 0x00,
  0x14, 0xfe, 0xff, 0xff, 0x00, 0x00, 0x00, 0x08, 0x02, 0x00, 0x00, 0x00,
  0x14, 0x00, 0x00, 0x00, 0x20, 0x00, 0x00, 0x00, 0x24, 0x00, 0x00, 0x00,
  0x04, 0x00, 0x00, 0x00, 0x00, 0x00, 0x00, 0x00, 0x03, 0x00, 0x00, 0x00,
  0x12, 0x00, 0x00, 0x00, 0x0c, 0x00, 0x00, 0x00, 0x0b, 0x00, 0x00, 0x00,
  0x01, 0x00, 0x00, 0x00, 0x0a, 0x00, 0x00, 0x00, 0x98, 0xff, 0xff, 0xff,
  0x4c, 0xff, 0xff, 0xff, 0x04, 0x00, 0x00, 0x00, 0x10, 0x00, 0x00, 0x00,
  0x18, 0x00, 0x00, 0x00, 0x04, 0x00, 0x00, 0x00, 0x00, 0x00, 0x00, 0x00,
  0x02, 0x00, 0x00, 0x00, 0x07, 0x00, 0x00, 0x00, 0x11, 0x00, 0x00, 0x00,
  0x01, 0x00, 0x00, 0x00, 0x12, 0x00, 0x00, 0x00, 0x7c, 0xfe, 0xff, 0xff,
  0x00, 0x00, 0x00, 0x08, 0x02, 0x00, 0x00, 0x00, 0x14, 0x00, 0x00, 0x00,
  0x20, 0x00, 0x00, 0x00, 0x28, 0x00, 0x00, 0x00, 0x04, 0x00, 0x00, 0x00,
  0x00, 0x00, 0x00, 0x00, 0x03, 0x00, 0x00, 0x00, 0x0e, 0x00, 0x00, 0x00,
  0x09, 0x00, 0x00, 0x00, 0x08, 0x00, 0x00, 0x00, 0x01, 0x00, 0x00, 0x00,
  0x07, 0x00, 0x00, 0x00, 0x04, 0x00, 0x04, 0x00, 0x04, 0x00, 0x00, 0x00,
  0xbc, 0xfe, 0xff, 0xff, 0x00, 0x00, 0x00, 0x05, 0x03, 0x00, 0x00, 0x00,
  0x14, 0x00, 0x00, 0x00, 0x18, 0x00, 0x00, 0x00, 0x1c, 0x00, 0x00, 0x00,
  0x04, 0x00, 0x00, 0x00, 0x00, 0x00, 0x00, 0x00, 0x01, 0x00, 0x00, 0x00,
  0x10, 0x00, 0x00, 0x00, 0x01, 0x00, 0x00, 0x00, 0x0e, 0x00, 0x00, 0x00,
  0x12, 0xff, 0xff, 0xff, 0x00, 0x00, 0x00, 0x01, 0x02, 0x00, 0x00, 0x00,
  0x02, 0x00, 0x00, 0x00, 0x02, 0x00, 0x00, 0x00, 0x02, 0x00, 0x00, 0x00,
  0x14, 0x00, 0x14, 0x00, 0x04, 0x00, 0x08, 0x00, 0x0c, 0x00, 0x00, 0x00,
  0x00, 0x00, 0x00, 0x00, 0x00, 0x00, 0x10, 0x00, 0x14, 0x00, 0x00, 0x00,
  0x04, 0x00, 0x00, 0x00, 0x10, 0x00, 0x00, 0x00, 0x18, 0x00, 0x00, 0x00,
  0x04, 0x00, 0x00, 0x00, 0x00, 0x00, 0x00, 0x00, 0x02, 0x00, 0x00, 0x00,
  0x03, 0x00, 0x00, 0x00, 0x0f, 0x00, 0x00, 0x00, 0x01, 0x00, 0x00, 0x00,
  0x10, 0x00, 0x00, 0x00, 0x14, 0x00, 0x18, 0x00, 0x00, 0x00, 0x08, 0x00,
  0x0c, 0x00, 0x07, 0x00, 0x10, 0x00, 0x00, 0x00, 0x00, 0x00, 0x14, 0x00,
  0x14, 0x00, 0x00, 0x00, 0x00, 0x00, 0x00, 0x01, 0x14, 0x00, 0x00, 0x00,
  0x20, 0x00, 0x00, 0x00, 0x30, 0x00, 0x00, 0x00, 0x04, 0x00, 0x00, 0x00,
  0x00, 0x00, 0x00, 0x00, 0x03, 0x00, 0x00, 0x00, 0x0d, 0x00, 0x00, 0x00,
  0x05, 0x00, 0x00, 0x00, 0x04, 0x00, 0x00, 0x00, 0x01, 0x00, 0x00, 0x00,
  0x03, 0x00, 0x00, 0x00, 0x00, 0x00, 0x0a, 0x00, 0x10, 0x00, 0x07, 0x00,
  0x08, 0x00, 0x0c, 0x00, 0x0a, 0x00, 0x00, 0x00, 0x00, 0x00, 0x00, 0x01,
  0x01, 0x00, 0x00, 0x00, 0x01, 0x00, 0x00, 0x00, 0xa8, 0xff, 0xff, 0xff,
  0x00, 0x00, 0x00, 0x05, 0x03, 0x00, 0x00, 0x00, 0x14, 0x00, 0x00, 0x00,
  0x18, 0x00, 0x00, 0x00, 0x2c, 0x00, 0x00, 0x00, 0x04, 0x00, 0x00, 0x00,
  0x00, 0x00, 0x00, 0x00, 0x01, 0x00, 0x00, 0x00, 0x00, 0x00, 0x00, 0x00,
  0x01, 0x00, 0x00, 0x00, 0x0d, 0x00, 0x00, 0x00, 0x00, 0x00, 0x0e, 0x00,
  0x18, 0x00, 0x07, 0x00, 0x08, 0x00, 0x0c, 0x00, 0x10, 0x00, 0x14, 0x00,
  0x0e, 0x00, 0x00, 0x00, 0x00, 0x00, 0x00, 0x01, 0x02, 0x00, 0x00, 0x00,
  0x02, 0x00, 0x00, 0x00, 0x02, 0x00, 0x00, 0x00, 0x02, 0x00, 0x00, 0x00,
  0x14, 0x00, 0x1c, 0x00, 0x08, 0x00, 0x0c, 0x00, 0x10, 0x00, 0x07, 0x00,
  0x14, 0x00, 0x00, 0x00, 0x00, 0x00, 0x18, 0x00, 0x14, 0x00, 0x00, 0x00,
  0x00, 0x00, 0x00, 0x02, 0x01, 0x00, 0x00, 0x00, 0x14, 0x00, 0x00, 0x00,
  0x20, 0x00, 0x00, 0x00, 0x30, 0x00, 0x00, 0x00, 0x04, 0x00, 0x00, 0x00,
  0x00, 0x00, 0x00, 0x00, 0x03, 0x00, 0x00, 0x00, 0x06, 0x00, 0x00, 0x00,
  0x02, 0x00, 0x00, 0x00, 0x01, 0x00, 0x00, 0x00, 0x01, 0x00, 0x00, 0x00,
  0x00, 0x00, 0x00, 0x00, 0x0c, 0x00, 0x14, 0x00, 0x07, 0x00, 0x08, 0x00,
  0x0c, 0x00, 0x10, 0x00, 0x0c, 0x00, 0x00, 0x00, 0x00, 0x00, 0x00, 0x01,
  0x01, 0x00, 0x00, 0x00, 0x01, 0x00, 0x00, 0x00, 0x04, 0x00, 0x00, 0x00,
  0x05, 0x00, 0x00, 0x00, 0x44, 0x00, 0x00, 0x00, 0x58, 0x00, 0x00, 0x00,
  0x14, 0x00, 0x00, 0x00, 0x28, 0x00, 0x00, 0x00, 0x04, 0x00, 0x00, 0x00,
  0xbe, 0xff, 0xff, 0xff, 0x00, 0x00, 0x00, 0x36, 0xc6, 0xff, 0xff, 0xff,
  0x00, 0x00, 0x00, 0x09, 0xce, 0xff, 0xff, 0xff, 0x00, 0x00, 0x00, 0x36,
  0xd6, 0xff, 0xff, 0xff, 0x00, 0x00, 0x00, 0x09, 0xde, 0xff, 0xff, 0xff,
  0x00, 0x00, 0x00, 0x11, 0xe6, 0xff, 0xff, 0xff, 0x00, 0x00, 0x00, 0x36,
  0xfa, 0xff, 0xff, 0xff, 0x00, 0x03, 0x06, 0x00, 0x06, 0x00, 0x05, 0x00,
  0x06, 0x00, 0x00, 0x00, 0x00, 0x11, 0x06, 0x00, 0x08, 0x00, 0x07, 0x00,
  0x06, 0x00, 0x00, 0x00, 0x00, 0x00, 0x00, 0x04
};
const unsigned int converted_model_tflite_len = 9128;
